#version: 0.2
t h
i n
a n
t e
th e</w>
e n
r e
a r
e r
t i
o n
e d</w>
o r
o f</w>
o n</w>
o u
an d</w>
t y</w>
i n</w>
e r</w>
r i
a l
e n</w>
t w
s i
e v
e s</w>
r o
a s</w>
s t
t h</w>
a l</w>
i s</w>
in g</w>
e l
a n</w>
t o</w>
f i
c h
l a
l i
u n
a m
s t</w>
h e</w>
o r</w>
d i
en ty</w>
r a
o m
e c
te en</w>
2 0
i l
tw enty</w>
n in
i g
ti on</w>
o l
a t
w as</w>
u r
t ri
e a
e m
te d</w>
i c
v e</w>
l y</w>
e s
a c
ev ed</w>
t s</w>
tw o</w>
tri eved</w>
i r
a t</w>
nin e
s h
b er</w>
ig h
20 1
m a
T he</w>
en t</w>
l o
te r</w>
ou s
f or</w>
i s
l e</w>
c e</w>
p o
e igh
w i
re d</w>
f ou
a s
ti on
f or
s u
c i
o v
b y</w>
te r
ar y</w>
on e</w>
a g
a p
s ev
l e
1 9
nine teen</w>
th ous
R e
d e
c h</w>
t o
thous and</w>
' s</w>
c on
p ro
c om
n e
s e
t a
ro m</w>
b u
b e
v i
r u
a d
wi th</w>
f rom</w>
o o
w h
s p
er e</w>
h a
g u
ou n
o p
20 0
th ir
re trieved</w>
un d
a tion</w>
Re trieved</w>
er s</w>
i v
d e</w>
h is</w>
a u
i t</w>
t e</w>
o w
d u
fi f
ar e</w>
h i
em ber</w>
a b
q u
p ar
re s
re e</w>
a y</w>
p u
th e
d s</w>
a tion
en th</w>
o c
in g
r an
e x
l u
g e</w>
en t
fi r
m i
m ar
at e</w>
u s
th ree</w>
m o
p er
al l</w>
p la
m e
al i
h und
n o
re c
si x
hund red</w>
m an
fir st</w>
fi ve</w>
s o</w>
i m
in e</w>
p or
eigh t</w>
o g
fou r</w>
th at</w>
nin e</w>
fou r
w ere</w>
th er</w>
p e
e b
u m
d ed</w>
s on</w>
s e</w>
i t
u l
c a
g h
w or
te m
te s</w>
si x</w>
sev en</w>
am e</w>
b o
l ea
te enth</w>
p h
al so</w>
c o
t u
d ing</w>
ar d</w>
s er
t ur
te n
te n</w>
a f
n i
i r</w>
t ra
e t</w>
o f
h as</w>
st or
ti c
e l</w>
m ent</w>
ation al</w>
e ar
l an
al ly</w>
e p
ag e</w>
s ec
nine ty</w>
p ri
l d</w>
ti m
ou r
v er
in c
r ou
an u
i es</w>
C h
b e</w>
si on</w>
un e</w>
b li
k e</w>
s ed</w>
th is</w>
I n
b i
el ev
d a
I n</w>
k s</w>
du c
anu ary</w>
tw el
ou t</w>
i c</w>
ne w</w>
e w</w>
w a
s ch
r y</w>
p res
ri c
l and</w>
M ar
iv er
to ber</w>
T h
u ly</w>
e t
b er
s h</w>
i ts</w>
on g</w>
d er</w>
ov ember</w>
gu st</w>
a m</w>
H e</w>
ec ember</w>
a ted</w>
in al</w>
tem ber</w>
si ty</w>
t or
s o
en ts</w>
w e
u s</w>
in t</w>
s c
fif teen</w>
s a
eb ru
m an</w>
ebru ary</w>
ti ve</w>
al l
s te
p i
d o
on d</w>
m u
g en
un i
t ing</w>
g ra
i a</w>
l es</w>
b or
c ol
sh i
pu bli
p a
four teen</w>
s ti
eigh ty</w>
tion s</w>
t on</w>
ha d</w>
twel ve</w>
m in
en ce</w>
thir teen</w>
an d
g e
es s</w>
ter s</w>
om e</w>
p re
19 9
A r
or ig
iver sity</w>
s y
com m
st a
j o
n ational</w>
com p
g i
or e</w>
ser v
ic h</w>
ow n</w>
iv ed</w>
elev en</w>
A u
ea r</w>
f e
c oun
or k</w>
es e</w>
h er</w>
si g
I t</w>
thir ty</w>
pla y
201 5</w>
c es</w>
d er
201 4</w>
e y</w>
el l</w>
on s</w>
g h</w>
en ti
the ir</w>
no t</w>
b ec
h o
n ed</w>
l ar
re s</w>
il y</w>
for m
ma y</w>
sec ond</w>
er ic
sev enty</w>
ou s</w>
201 3</w>
wh ich</w>
sp ec
re a
f a
oo l</w>
in s</w>
201 2</w>
ha ve</w>
bu t</w>
f er
ti es</w>
af ter</w>
ol og
ar i
ic al</w>
s he</w>
k ing</w>
201 1</w>
lo w
t or</w>
eigh teen</w>
orig inal</w>
il l
b le</w>
six ty</w>
ov er
m on
en g
for ty</w>
o ther</w>
fif ty</w>
g a
c k</w>
u m</w>
b ri
st r
an t</w>
gh t</w>
i d
el ec
ation s</w>
il l</w>
n or
A n
e w
c en
il li
a v
w ar
the y</w>
f am
an g
f in
u p</w>
in ter
t ro
1 8
la tion</w>
be en</w>
st u
al s</w>
po int</w>
an y</w>
an n
di a</w>
so ci
fi l
201 0</w>
y s</w>
tim e</w>
ol d</w>
ing s</w>
inc lu
ar ch
c ar
ic e</w>
ti c</w>
se p
stor y</w>
A l
w ay</w>
es s
st s</w>
el l
k n
s k
tur e</w>
ov er</w>
oun d</w>
an i
ur ing</w>
b as
U n
sh ed</w>
p s</w>
w n</w>
an ce</w>
am es</w>
er al</w>
s s</w>
e d
b ro
on d
ch ar
f ac
N ew</w>
po pu
g o
mar ch</w>
j anuary</w>
r en
a k
a d</w>
bor n</w>
shi p</w>
el d</w>
thir d</w>
fou n
c or
ev er</w>
r e</w>
th ere</w>
c u
J anuary</w>
bu il
O c
c la
19 8
h ous
i l</w>
S t
in to</w>
in ed</w>
p p
s ur
an s</w>
Mar ch</w>
wh o</w>
oc tober</w>
g re
ear s</w>
s in
la r</w>
j uly</w>
n ovember</w>
re lea
C om
ou th</w>
j une</w>
s ea
ri l</w>
a re
au gust</w>
di st
ou ld</w>
of fi
c an</w>
si c</w>
p en
oo d</w>
d ecember</w>
ap ril</w>
ac k</w>
sep tember</w>
b ur
R o
res s</w>
th er
sch ool</w>
Oc tober</w>
d ay</w>
J uly</w>
M ay</w>
c ed</w>
c an
il e</w>
n ing</w>
eric an</w>
J une</w>
i st
t a</w>
c ri
a r</w>
us ed</w>
Au gust</w>
S ep
f ebruary</w>
l in
A pri
D ecember</w>
Apri l</w>
st ru
s es</w>
e f
N ovember</w>
Sep tember</w>
E n
su s</w>
v es</w>
a y
on g
pro duc
d ent</w>
e st
J o
y ears</w>
v il
c al</w>
S ta
mo st</w>
f e</w>
200 9</w>
t ran
y ear</w>
m ore</w>
A m
c re
por t</w>
l ed</w>
four th</w>
F ebruary</w>
h ar
ci ty</w>
k ed</w>
f u
is h</w>
d es</w>
man y</w>
d y</w>
h n</w>
po li
ag a
f t</w>
b oo
e en</w>
a ch
em ent</w>
on ly</w>
un iversity</w>
ci al</w>
fam ily</w>
i li
t le</w>
i d</w>
d ev
st ar
d uring</w>
m is
L i
m ov
c ent
h ea
0 0</w>
o re
r am
ra c
t in
n am
c ur
ap p
j u
i ty</w>
e th</w>
di an</w>
l ine</w>
d ec
al e</w>
st ate</w>
ca ted</w>
le y</w>
P ar
n um
rec or
fif th</w>
r on
d es
v ol
n er</w>
f ol
sev en
200 8</w>
th rou
c lo
c ap
l y
e st</w>
19 7
v ed</w>
s si
al bu
wor ld</w>
p er</w>
h e
Un iversity</w>
n e</w>
fil m</w>
bec ame</w>
ab out</w>
sh o
six th</w>
og ra
su b
d ge</w>
publi c</w>
C on
s ing
popu lation</w>
la ter</w>
ig h</w>
w ri
ou r</w>
kn own</w>
v er</w>
Ar ch
as e</w>
wh en</w>
sev enth</w>
fi c
in a</w>
b all</w>
c c
1 0</w>
or g
a i
m s</w>
eigh th</w>
ur e</w>
ond on</w>
j ec
ir e</w>
T his</w>
be g
d el
sti tu
P ro
l ec
l ev
tim es</w>
o b
s el
c k
par t
pres s</w>
th en</w>
c am
v en
e di
al es</w>
tic s</w>
stru c
1 1</w>
U ni
200 7</w>
w ard</w>
ma de</w>
nin th</w>
di rec
b ar
hi m</w>
tw een</w>
b r
p lan
olog y</w>
th an</w>
str ali
c lu
ne w
par t</w>
s ome</w>
six teen</w>
for d</w>
relea sed</w>
over n
b el
ab le</w>
ow ever</w>
2 0</w>
t y
w in
k e
te am</w>
d en
ric t</w>
v o
c y</w>
gu e</w>
n o</w>
h er
H i
ent ly</w>
o li
i al</w>
di ed</w>
albu m</w>
e g
S ch
p r
n a
be tween</w>
e u
g rou
l l</w>
s en
si l</w>
ter n</w>
el op
y ork</w>
di s
tic al</w>
su l
n s</w>
p hi
si de</w>
om e
op le</w>
z e</w>
1 2</w>
er y</w>
to wn</w>
ma tion</w>
m p
em b
m e</w>
o s</w>
M a
ac c
l l
o s
or s</w>
N ational</w>
t t
on al</w>
i ch
op er
W or
ti v
C ol
w ell</w>
oo t
d re
qu i
re g
throu gh</w>
200 6</w>
for e</w>
an a</w>
i e</w>
play ed</w>
b a
p e</w>
m at
en d</w>
th ese</w>
d en</w>
p an
19 6
is ter</w>
sp or
z ed</w>
no w</w>
N or
hi story</w>
ste m</w>
A f
si s</w>
v ing</w>
s m
a ir
und er</w>
c o</w>
at ing</w>
te ri
or y</w>
B ri
e ty</w>
i an</w>
lo cated</w>
m y</w>
c y
B o
si te</w>
r a</w>
1 5</w>
v e
mu sic</w>
ta in</w>
sea son</w>
lo w</w>
h ol
am pi
di vi
are a</w>
h u
pe ople</w>
wh ere</w>
ti l</w>
fol low
ti sh</w>
B u
n ame</w>
w ould</w>
c all
vil la
1 8</w>
S u
Y ork</w>
t t</w>
vi ew</w>
n al</w>
k er</w>
arch ived</w>
o k</w>
an t
f ec
ri ed</w>
3 0</w>
for mation</w>
d o</w>
dev elop
de sig
ur y</w>
s qu
p le</w>
rec e
P ress</w>
as s
uni ted</w>
ou gh</w>
L a
st ra
ali ty</w>
wi th
Arch ived</w>
comp any</w>
comp le
1 9</w>
num ber</w>
ber t</w>
ch an
1 4</w>
di f
e k</w>
un ic
b ack</w>
di o</w>
t re
le ge</w>
ch il
sta tes</w>
el y</w>
wor k</w>
cen sus</w>
un til</w>
ing ton</w>
h igh</w>
b an
hi stor
bo th</w>
ta tion</w>
1 6</w>
d ea
po si
1 3</w>
h y
D e
ac h</w>
g er
Uni ted</w>
w on</w>
ser ies</w>
1 7</w>
M o
con si
ea ch</w>
g overn
re si
d em
ti s
fi eld</w>
ew s</w>
hous e</w>
spec ies</w>
w ill</w>
f re
c ro
D i
m er</w>
C oun
2 5</w>
c ent</w>
con tin
s s
coun ty</w>
D a
l ing</w>
wa r</w>
a z
2 1</w>
tion al</w>
c er
part ment</w>
do t</w>
war ds</w>
s ted</w>
fe at
di c
su cc
re tur
tran s
M u
igh t</w>
tra c
ph y</w>
s outh</w>
ac k
g r
C ar
T im
l or
sev eral</w>
ur ch</w>
cur r
S he</w>
2 2</w>
f ran
te c
we st</w>
in te
grou p</w>
foun d</w>
dist rict</w>
G e
o d</w>
2 4</w>
at t
ar t</w>
sin ce</w>
be fore</w>
f es
f oot
h el
st ation</w>
O n</w>
ti n</w>
per i
r y
am s</w>
boo k</w>
19 4
re la
am erican</w>
call ed</w>
b la
g ame</w>
beg an</w>
Wor ld</w>
de f
bas ed</w>
2 3</w>
nam ed</w>
in st</w>
v ari
Am erican</w>
s ter</w>
b and</w>
r al</w>
G u
a th
i p
su p
li fe</w>
mi t
ear ly</w>
for m</w>
19 5
st ri
contin u
m er
h igh
d ol
2 8</w>
ther n</w>
pla ce</w>
2 6</w>
g er</w>
i te</w>
ch es</w>
wh ile</w>
m en
d a</w>
us e</w>
b ra
in ing</w>
s ol
2 7</w>
s ou
it al</w>
c e
re sul
m illi
ic s</w>
vi d</w>
aga inst</w>
d ra
re ma
villa ge</w>
nor th</w>
ne y</w>
re gi
v an
In ter
d ers</w>
sy stem</w>
l a</w>
h owever</w>
le g
is m</w>
c our
S h
P u
su ch</w>
po in
inter national</w>
2 9</w>
A c
sh ing</w>
li t
u p
v ir
v al
l er</w>
the m</w>
En g
be ing</w>
k es</w>
buil t</w>
an g</w>
op en
p ec
ni a</w>
elev enth</w>
d ents</w>
s ci
ea st</w>
tw enti
p lo
per cent</w>
te ly</w>
h ome</w>
B i
as soci
st on</w>
d oc
sel f</w>
pro vi
of f</w>
Sta tes</w>
serv ed</w>
x t</w>
n at
c ra
k a</w>
i m</w>
in i
R a
t al</w>
in e
s on
se t</w>
o m</w>
tor y</w>
w er</w>
F ran
ha m</w>
w om
s co
si ons</w>
C en
ch ed</w>
I s
ad a</w>
r un
tor s</w>
f ul
ou t
uni ty</w>
serv ice</w>
su m
com pe
ic k</w>
in f
W h
li sh</w>
twenti eth</w>
m or
ampi on
G er
g ro
P D
form er</w>
v ic
st an
f ri
s ong</w>
el s</w>
st re
200 5</w>
bri dge</w>
si ve</w>
nine teenth</w>
C an
di es</w>
g ar
s ing</w>
ten th</w>
form ed</w>
G re
p ol
Jo hn</w>
d om
f fi
f th</w>
z ation</w>
seven teen</w>
jec t</w>
our nal</w>
com e</w>
d ri
l em
fif teenth</w>
g es</w>
at a</w>
me di
PD F</w>
jo hn</w>
in ce</w>
M e
rece ived</w>
inclu ding</w>
di sc
ali for
s ame</w>
F or
fu l</w>
to ok</w>
twel fth</w>
ar ch</w>
govern ment</w>
clu b</w>
H ar
eigh teenth</w>
ch i
Tim es</w>
S o
h eld</w>
ren ch</w>
c ul
L e
dif fer
th o
ver y</w>
S er
Th ey</w>
pres en
t ry</w>
por t
P o
ap pro
seven teenth</w>
li ke</w>
mov ed</w>
i de</w>
i sion</w>
S y
de pen
publi shed</w>
ti ci
ma j
n ec
six teenth</w>
four teenth</w>
P la
sing le</w>
alifor nia</w>
m il
olog ical</w>
foot ball</w>
thir teenth</w>
buil ding</w>
ap pe
cent ury</w>
am p
200 4</w>
k en</w>
k il
al d</w>
u al</w>
li c
a st</w>
e f</w>
man ag
es sed</w>
n a</w>
L ondon</w>
ac e</w>
in es</w>
und er
cen ter</w>
si a</w>
or i
a sh
on om
d on
E x
Q u
elec ted</w>
l ondon</w>
follow ing</w>
l ong</w>
org ani
ch urch</w>
is e</w>
lo c
201 6</w>
lar s</w>
milli on</w>
duc ation</w>
sho w</w>
ar ound</w>
d ro
ad em
t ly</w>
o u</w>
ti eth</w>
di tion</w>
to p</w>
ca re
te ch
la te</w>
new s</w>
qu e</w>
u t
illi am</w>
p ur
c er</w>
l in</w>
es tern</w>
strali a</w>
e red</w>
fi ed</w>
ent al</w>
squ are</w>
gen er
ch a
f em
ro ad</w>
S te
un c
h al
se arch</w>
b ed</w>
at s</w>
A s</w>
sig ned</w>
bu sin
en s</w>
mar ried</w>
la st</w>
m ents</w>
le ft</w>
dre n</w>
en d
sh or
ci l</w>
c as
de l</w>
t ru
lo cal</w>
est ab
Sch ool</w>
col lege</w>
200 0</w>
char ac
B ar
con tro
di d</w>
H is</w>
T o
ra tion</w>
ar s</w>
unic ip
pla y</w>
d d
f f
St ate</w>
B e
ag es</w>
feat u
th s</w>
3 1</w>
re as
elec tion</w>
t al
is o
be st</w>
n ov
wa ter</w>
st o
bo ard</w>
ur al</w>
d own</w>
p ic
st ing</w>
dol lars</w>
thir tieth</w>
m a</w>
C o
gen eral</w>
B ro
a ver
stitu te</w>
lea gue</w>
des cri
a tes</w>
w ood</w>
ar ti
h or
p as
f inal</w>
an ts</w>
1 7
pre si
sm all</w>
u r</w>
Th ere</w>
p at
m en</w>
au se</w>
P e
g iv
at ten
ch ri
k ey</w>
m emb
f ore
of f
i st</w>
sp on
k o
g o</w>
ol s</w>
M on
g ed</w>
r o</w>
si onal</w>
ac t</w>
u ro
dea th</w>
de red</w>
ig n</w>
strali an</w>
y ed</w>
Pu bli
te st</w>
da e</w>
ma in</w>
u e</w>
w al
on es</w>
par k</w>
g ames</w>
shi ps</w>
ph o
b at
li ght</w>
min ist
si an</w>
Ch ri
d ow
w eb
hea d</w>
an e</w>
b ir
offi ce</w>
sti ll</w>
h on
Af ter</w>
ogra phy</w>
c li
estab li
ge st</w>
1 0
th ers</w>
chil dren</w>
inclu de</w>
th ough</w>
se e</w>
i ma
an other</w>
offi cial</w>
te red</w>
in v
ga z
la w</w>
t ten</w>
gra m</w>
y a</w>
k et</w>
in formation</w>
u ri
C or
S .</w>
c el
m ember</w>
au th
S e
o w</w>
eric a</w>
ic es</w>
M c
t ter</w>
y al</w>
Hi story</w>
comm unity</w>
A d
fa ther</w>
R es
play er</w>
al y
gra du
ch ang
de partment</w>
200 3</w>
h an
memb ers</w>
ent u
g ran
care er</w>
con struc
se um</w>
is su
G en
pro g
or ge</w>
a h</w>
e al
fi c</w>
y oun
en ces</w>
ti vi
se qu
de o</w>
m ul
o t</w>
h am
R ec
on y</w>
li st</w>
en n
d in
ea s
ad e</w>
R ev
H er
star ted</w>
of ten</w>
st ro
rea u</w>
si on
b s</w>
au l</w>
lan ds</w>
re por
br ary</w>
aga in</w>
in du
h um
r an</w>
y ing</w>
spec i
t om
posi tion</w>
a w
ag o</w>
e k
lar ge</w>
pro v
a ir</w>
z er
po sed</w>
o x
M in
w il
b lo
b al
19 3
aver age</w>
with in</w>
ic k
c ou
fer ence</w>
m ary</w>
l s</w>
ann oun
A s
re vi
p p</w>
n ear</w>
do m</w>
is ed</w>
um e</w>
sch o
stu dents</w>
om as</w>
F or</w>
fin i
200 1</w>
Hi stor
eu ro
l ess</w>
au gh
k ill
tri bu
lan gu
col lec
s al
d ate</w>
200 2</w>
L ea
w in</w>
C ity</w>
g et</w>
sa int</w>
ra il
c al
P er
is la
ta ble</w>
f ur
V i
phi c</w>
A t</w>
f la
ac i
ver sion</w>
f ar
r ing</w>
ri ver</w>
an ese</w>
S outh</w>
y le</w>
vil le</w>
Ch ar
m unicip
p ea
ad v
p al
re st</w>
differ ent</w>
M ich
wa ys</w>
re li
inclu ded</w>
busin ess</w>
ber g</w>
ra ce</w>
I S
b en
pla ced</w>
sh ire</w>
ev ery</w>
re view</w>
oc k</w>
w ent</w>
curr ently</w>
N e
ma in
jo ined</w>
ti ce</w>
t an
re gu
m em
recor d</w>
b it
W i
n ers</w>
c ep
r on</w>
il s</w>
tion ary</w>
th em
ph y
ch ampion
re ad
h om
es ti
p l
pro c
par ty</w>
po wer</w>
Inter national</w>
relea se</w>
develop ment</w>
Coun ty</w>
u tion</w>
maj or</w>
m ed</w>
foun ded</w>
tur al</w>
B er
O r
pr in
produc ed</w>
sh ow
mi th</w>
tw ork</w>
o k
Re g
h in
d ou
Com p
tro duc
I I</w>
C am
du e</w>
al ong</w>
d i</w>
ar ly</w>
ex ten
s our
ef fec
qu ar
0 00</w>
ong s</w>
re search</w>
n on</w>
establi shed</w>
ti tle</w>
w estern</w>
kil ome
j ap
sy l
S a
un g</w>
wri tten</w>
g in
mi c</w>
sp i
se y</w>
g y</w>
me ters</w>
e ducation</w>
b rea
ne xt</w>
P ri
open ed</w>
g s</w>
N ews</w>
re f
c ould</w>
s en</w>
M an
po st</w>
cy clo
pro b
d ar
to w
y er</w>
b ea
s ons</w>
pro fes
coun try</w>
pro gram</w>
O ffi
1 6
retur ned</w>
m oun
h n
ap poin
vi si
bro ad
te lev
me dia</w>
E uro
wor ks</w>
ta ins</w>
c op
gh ts</w>
tech n
Cen sus</w>
Th e
cent ral</w>
bur g</w>
J ap
ea red</w>
fe der
mis sion</w>
re spon
regi on</w>
Al l</w>
1 5
ai la
c au
at or</w>
ar tic
r in
kilome ters</w>
vi deo</w>
ec u
d on</w>
ar ds</w>
histor ic</w>
un d</w>
arch i
p t</w>
ne l</w>
ep iso
wh at</w>
L u
s w
w s</w>
succ ess
boo ks</w>
presi dent</w>
d y
s an
pe an</w>
n u
re ti
m al
ous e</w>
s ome
l ou
a in</w>
cor ding</w>
da ys</w>
vi a</w>
bi li
or der</w>
es ter</w>
gre at</w>
bri tish</w>
cla ss</w>
associ ation</w>
produc tion</w>
h en
d ings</w>
Bri tish</w>
B oo
W ar</w>
wor ked</w>
th ing</w>
t ar
o l</w>
s '</w>
gr ound</w>
ne t</w>
C ent
H owever</w>
un g
c ame</w>
J u
c alifornia</w>
continu ed</w>
il ed</w>
us ing</w>
mo der
telev ision</w>
c at
wh ite</w>
ous ly</w>
av aila
al th</w>
wi t
a tive</w>
n ess</w>
m y
am ong</w>
li ve</w>
v ey</w>
ro le</w>
soci ety</w>
in c</w>
s a</w>
app eared</w>
As soci
tu res</w>
in come</w>
ili ty</w>
l li
w ing</w>
in troduc
ic o</w>
ec onom
i f</w>
p rac
wom en</w>
s em
se tt
f f</w>
d augh
a dian</w>
publi c
e h
O n
im port
t ary</w>
el i
n om
U .
S ec
' t</w>
k in
ri ght</w>
ma gaz
B ra
re presen
pro te
ju st</w>
divi sion</w>
van ia</w>
u su
inc or
compe ti
ter y</w>
ini ti
ti ves</w>
e p</w>
am a</w>
fic ation</w>
tem s</w>
depen dent</w>
e ds</w>
oun ds</w>
sta r</w>
si ze</w>
serv ices</w>
ro ss</w>
f ree</w>
b al</w>
syl vania</w>
orig in
hum an</w>
bi a</w>
e an</w>
r ound</w>
ra dio</w>
z i
ful l</w>
ent ary</w>
con nec
di tional</w>
ca r</w>
lev el</w>
m c
sa id</w>
pro ject</w>
S tu
19 0
availa ble</w>
k i
or ity</w>
k i</w>
fam ili
st ry</w>
t i</w>
D ist
H ol
j ournal</w>
T ra
Da vid</w>
web site</w>
ca st</w>
si l
mit te
a ward</w>
op en</w>
b re
vari ous</w>
ta ke</w>
k et
da vid</w>
ho w</w>
b in
bec ause</w>
m ing</w>
re st
F i
chan ge</w>
ali st</w>
for man
as si
e ts</w>
k ers</w>
comm is
mi lit
to tal</w>
bec ome</w>
a h
In dia</w>
st and
M or
d ation</w>
in vol
ac tivi
incor por
mu si
tiv al</w>
ru n</w>
Nor th</w>
ac adem
recor ded</w>
descri bed</w>
b y
st one</w>
in di
tra ck</w>
R us
w e</w>
ar ri
199 9</w>
spor t</w>
lo s</w>
te x
li es</w>
M i
la ted</w>
direc tor</w>
an o</w>
fac e</w>
bla ck</w>
f lo
f ron
pres ent</w>
is land</w>
e y
5 0</w>
cre ated</w>
reg ister</w>
H u
ma ke</w>
W il
in dia</w>
lo st</w>
ov ered</w>
b ran
m ac
pe dia</w>
p h</w>
en ded</w>
im p
pro mo
N o
v an</w>
n er
t ou
en e</w>
z a</w>
ch o
P oli
v ice</w>
y ou</w>
en ds</w>
shor t</w>
co m</w>
ev en</w>
n av
en cy</w>
sci ence</w>
g lo
w ea
c ir
p ra
t on
at ab
popu lar</w>
mu ch</w>
el es</w>
ali an</w>
So ci
resul ts</w>
la un
pre vi
se t
s po
mar k</w>
W e
t our
r i</w>
k ar
poli tical</w>
s an</w>
sup port</w>
prog ram
G ra
coun cil</w>
on line</w>
A b
sup por
re r</w>
acc essed</w>
langu age</w>
1 3
profes sional</w>
c a</w>
P or
o d
b a</w>
ic a</w>
di sp
fi le</w>
li mi
li am
cra ft</w>
cour t</w>
wi de</w>
ch e
ex am
uni on</w>
wi fe</w>
ta ined</w>
ma g
ger man</w>
S co
er ing</w>
an s
18 9
par tici
Par k</w>
p age</w>
comm on</w>
pp ed</w>
ic ago</w>
R u
p ap
k a
Ger man</w>
en a</w>
peri od</w>
g g
le t</w>
be l</w>
pa in
appoin ted</w>
youn g</w>
tra v
announ ced</w>
199 8</w>
bo dy</w>
te ach
B la
ro ck</w>
b an</w>
milit ary</w>
enti al</w>
D u
appe ar
re port</w>
s old</w>
Col lege</w>
ir s</w>
Reg ister</w>
ar my</w>
o ve</w>
giv en</w>
B N</w>
em ents</w>
ric k</w>
sk i</w>
ill s</w>
famili es</w>
stre et</w>
em plo
C la
c ell
pri v
n es
De partment</w>
spor ts</w>
g ir
id a</w>
ci vi
1 00</w>
t s
sc ri
f o
magaz ine</w>
s la
eas tern</w>
per forman
e i
tri es</w>
ad minist
u te</w>
ric a</w>
sy n
b ers</w>
d ru
mitte e</w>
s ongs</w>
curr ent</w>
ma s
desig n</w>
all s</w>
U S</w>
d ata</w>
s er</w>
sur e</w>
ev ent</w>
in o</w>
m el
sho p</w>
c ase</w>
ag ed</w>
scho ols</w>
sta tis
with out</w>
me dian</w>
i de
An g
k u
IS BN</w>
import ant</w>
U. S.</w>
qui red</w>
Com m
W in
m ur
al low
tiv ely</w>
f rench</w>
Rec or
Lea gue</w>
F rom</w>
ty pe</w>
F rench</w>
ri ch
phy si
ci p
zer o</w>
b lu
mo ther</w>
con cer
v en</w>
h a</w>
ta in
J ames</w>
fem ales</w>
se a</w>
T V</w>
T ran
gi an</w>
con trac
soci al</w>
Associ ation</w>
pla ces</w>
n ight</w>
tho se</w>
us es</w>
s tems</w>
al o
ogra phic</w>
a 's</w>
de but</w>
F e
consi dered</w>
B C</w>
st yle</w>
j ames</w>
atab ase</w>
ev er
M as
ch ap
vir on
hal f</w>
me d
n ames</w>
develop ed</w>
y n
n ever</w>
contro l</w>
ran ge</w>
199 0</w>
su per
eng lish</w>
vol ume</w>
er a</w>
te ams</w>
form s</w>
for ce</w>
f el
a war
A n</w>
in ese</w>
in ten
Eng lish</w>
op s</w>
fir e</w>
featu res</w>
l o</w>
e th
ri s</w>
edi tion</w>
e m</w>
an im
a st
li sted</w>
daugh ter</w>
h all</w>
H ouse</w>
j er
ro w</w>
ri s
id enti
f ew</w>
d am
S ci
ru ssi
g a</w>
a j
ol y
inc reas
nor th
Au stralia</w>
recor ds</w>
da ily</w>
e du
gh out</w>
F in
fer red</w>
municip ality</w>
h ear
O ne</w>
li brary</w>
y 's</w>
mil es</w>
ol e</w>
on ce</w>
Th ese</w>
mu seum</w>
ra te</w>
iv er</w>
Rev i
na tive</w>
construc tion</w>
bel i
e re
ch u
on a</w>
lan d
w ro
J ournal</w>
cyclo pedia</w>
champion ship</w>
Dist rict</w>
S i
199 7</w>
E d
D uring</w>
1 4
do es</w>
hi m
f unc
w illiam</w>
artic le</w>
ter m</w>
a wards</w>
W illiam</w>
oo d
gen us</w>
ac tion</w>
Eng land</w>
moder n</w>
eal and</w>
rou te</w>
on i
wor king</w>
W al
origin ally</w>
episo de</w>
u t</w>
ess or</w>
to ge
oc cu
entu ally</w>
divi du
inclu des</w>
c ing</w>
le ar
W est</w>
sec re
k en
bili ty</w>
an ish</w>
inf lu
op h
h ere</w>
sp e
toge ther</w>
s of
wro te</w>
Comp any</w>
tu al</w>
Mu sic</w>
em p
gin ia</w>
sum mer</w>
18 8
te l</w>
eng land</w>
sou thern</w>
are as</w>
a el</w>
nor thern</w>
og ni
par tic
au stralia</w>
. com</w>
A t
l as</w>
bro ther</w>
a ti
spec ial</w>
kill ed</w>
comple ted</w>
wa sh
b our
d u</w>
a k</w>
doc um
sti an</w>
ne twork</w>
d ence</w>
n 't</w>
usu ally</w>
play ing</w>
lar gest</w>
199 6</w>
l es
Soci ety</w>
Ro bert</w>
histor ical</w>
R om
ra ted</w>
mi cha
e ded</w>
H o
archi tec
wri ter</w>
st at
ro bert</w>
an ti
pro per
to gra
h and
T ur
P hi
f low
g la
k o</w>
un its</w>
te xt</w>
ci ent</w>
M al
e ch
cla im
g ol
sk y</w>
mi lar</w>
p ed</w>
D is
di e</w>
st age</w>
g ri
vi sion</w>
l en
ar a</w>
F il
per formed</w>
U S
atten ded</w>
g ood</w>
rail way</w>
st af
throu ghout</w>
n ation
p ical</w>
po ssi
mat ch</w>
fur ther</w>
sur vi
in stitute</w>
P al
cla ssi
st ant</w>
on to</w>
W hi
stu dy</w>
sou th
ea t</w>
def en
t our</w>
a way</w>
o ta</w>
desig ned</w>
ma ch
f und
ma king</w>
com pu
direc ted</w>
lea d</w>
p es</w>
h an</w>
in dividu
f le
re land</w>
n ar
ow ned</w>
fini shed</w>
sp ace</w>
P i
struc ture</w>
partici p
comm er
ag re
p ass
y m
m ental</w>
reli gi
T ri
stu dies</w>
eng th</w>
w at
j a</w>
m ales</w>
au stralian</w>
an aly
rema ined</w>
e qu
O x
f er</w>
sh a
Au stralian</w>
199 5</w>
poli ce</w>
oc ra
ric an</w>
me t
di g
re public</w>
resul t</w>
ad dition</w>
ic ro
v al</w>
2 .
t an</w>
poin ts</w>
jec ts</w>
man u
a tely</w>
micha el</w>
ap e</w>
an i</w>
lo ve</w>
plan t</w>
d or
si milar</w>
lin es</w>
M is
it a</w>
co ach</w>
B ur
Mich ael</w>
he alth</w>
uni or</w>
ma teri
pro tec
Am erica</w>
j our
s we
ev entually</w>
m ol
di um</w>
S ur
sec tion</w>
M at
wash ington</w>
ab ility</w>
al a</w>
li gh
S pec
c lea
se par
him self</w>
ta ken</w>
qu e
ad ded</w>
man n</w>
la ke</w>
M .</w>
au l
ev ents</w>
H igh</w>
limi ted</w>
y l
awar ded</w>
lo o
featu red</w>
ha bit
k er
ogra ph
z a
th y</w>
ro yal</w>
tra ining</w>
B y</w>
ho sp
V er
ch ing</w>
ac cording</w>
ri bu
in ation</w>
to day</w>
bec om
c le</w>
j a
c is
v a</w>
tem por
sig ni
fe red</w>
li e</w>
lit tle</w>
m ile</w>
ig an</w>
G overn
F re
an th
4 0</w>
lor ida</w>
ta r</w>
con tribu
play ers</w>
publi shing</w>
c l
s or
d ney</w>
Re public</w>
den sity</w>
en s
v is
di sh</w>
con stitu
re placed</w>
ac tive</w>
f oc
St re
ter min
bat tle</w>
nat ural</w>
organi zation</w>
In formation</w>
we ek</w>
iv es</w>
Gen eral</w>
nov el</w>
F ir
ten t</w>
cre di
Histor ic</w>
s ses</w>
air craft</w>
dec i
c ru
ra y</w>
en ter
H en
ec h</w>
te g
it age</w>
resi dent</w>
P re
ha ving</w>
k y
ti t
ri sh</w>
gre en</w>
18 6
at tem
ch e</w>
d an</w>
ari an</w>
eng ine
W ash
in dependent</w>
s am
charac ter</w>
d ly</w>
cam pa
fe et</w>
p it
play s</w>
R ich
x ed</w>
ex ico</w>
Ser vice</w>
T w
pu t</w>
hea d
199 4</w>
col um
gu i
ou ght</w>
T er
sh es</w>
hi bi
emb ly</w>
success ful</w>
mu st</w>
so on</w>
pp er</w>
Wh en</w>
ch em
qu ali
m ig
si mp
pre mi
g en</w>
oli c</w>
sy stems</w>
sc re
ann ual</w>
indu stry</w>
l ong
priv ate</w>
k ing
res er
ter ri
re n</w>
se en</w>
b or</w>
G ar
chang ed</w>
z ing</w>
tow n
bu l
c oo
o thers</w>
Wash ington</w>
E lec
s ent</w>
am erica</w>
A cc
er gy</w>
em e
tour nam
bu reau</w>
S ou
g am
Can ada</w>
0 1</w>
z z
si tu
J .</w>
sp ap
V al
h i</w>
p tion</w>
f essor</w>
mo del</w>
sep h</w>
cor por
R i
te ra
k ra
retur n</w>
th ea
h ood</w>
sti c</w>
performan ce</w>
Ox ford</w>
ac ross</w>
ox ford</w>
ex peri
Ch ampion
hol ds</w>
sp ea
st op
exam ple</w>
R iver</w>
Ge orge</w>
ari o</w>
ad o</w>
18 7
en viron
al though</w>
offi ci
bu s</w>
In stitute</w>
dist ribu
G o
m ea
mov ie</w>
I ts</w>
G rou
N ew
ur a</w>
for t</w>
B el
ar ies</w>
chi ef</w>
pen n
T or
ma y
C i
stu dio</w>
all er</w>
de ta
c up</w>
S ing
p on
P op
ol ina</w>
ex ecu
show s</w>
h un
mul ti
T o</w>
tu red</w>
clo sed</w>
er ous</w>
mon ths</w>
p il
Revi ew</w>
dow n
C alifornia</w>
de g
ca st
B a
li ed</w>
Bu reau</w>
tri c</w>
mi dd
competi tion</w>
ch er</w>
fes tival</w>
hous ing</w>
re al</w>
ath le
li ved</w>
un iver
sa w</w>
P aul</w>
reti red</w>
for ces</w>
mi d</w>
hel p</w>
pri mary</w>
our s</w>
g old</w>
prov ince</w>
fi gh
Cen ter</w>
ex pan
me t</w>
1 .
liam ent</w>
h ill</w>
Offi ce</w>
sa ys</w>
comple te</w>
d an
ge orge</w>
b ac
t land</w>
rec ogni
proc ess</w>
c le
L o
mar ket</w>
A le
D ev
in ated</w>
e 's</w>
appro x
grou ps</w>
repor ted</w>
S en
Wi th</w>
ta kes</w>
follow ed</w>
a i</w>
su pp
con tains</w>
bas e</w>
ro om</w>
199 2</w>
ti al</w>
b b
v or
t z</w>
introduc ed</w>
eh old</w>
can ada</w>
Me dia</w>
pu s</w>
la w
cel eb
com b
L an
am ed</w>
Is la
ste ad</w>
ch ester</w>
hin d</w>
ani el</w>
u lar</w>
W ar
i or</w>
c s</w>
por ts</w>
Fir st</w>
s mith</w>
Th omas</w>
sig n</w>
wor d</w>
p aul</w>
bi g</w>
bro wn</w>
N av
in st
S an
ol a</w>
bi ography</w>
a e</w>
ci a</w>
sy m
da m</w>
199 3</w>
ach i
C .</w>
l d
oc k
th omas</w>
rela ted</w>
s al</w>
le t
po w
Coun cil</w>
U K</w>
hea v
C hi
up on</w>
fron t</w>
techn ology</w>
oun d
con duc
S al
h it</w>
n ic
b on
feder al</w>
att ack</w>
G i
a tic</w>
m al</w>
199 1</w>
B us
can di
Fran ce</w>
a x
at ors</w>
ad s</w>
fil ms</w>
B as
re ve
E ast</w>
manag ement</w>
sub sequ
o is</w>
et te</w>
de stro
hous ehold</w>
S an</w>
P at
clo se</w>
in stitu
di tions</w>
se x</w>
staf f</w>
hi o</w>
comp an
we gian</w>
fran ce</w>
cep t</w>
k el
pi te</w>
ex per
ear ch</w>
C ro
p sy
cam bridge</w>
ec e</w>
ga ve</w>
ful ly</w>
n y</w>
ima tely</w>
ten ed</w>
B al
ti s</w>
char t</w>
ri es</w>
succ ess</w>
li pp
z es</w>
sea t</w>
gu ide</w>
contrac t</w>
C a
h ur
r s</w>
C re
ste in</w>
arti st</w>
clea r</w>
j us
bur y</w>
c in
V ol
str ong</w>
s y</w>
Grou p</w>
ric ul
g al
198 0</w>
tion ed</w>
Uni on</w>
n eigh
f all</w>
st a</w>
doc tor</w>
m ate</w>
an der</w>
fre qu
st ly</w>
in ning</w>
u n</w>
invol ved</w>
ban k</w>
cul ture</w>
N i
ing er</w>
par ts</w>
l ement</w>
stu died</w>
Da ily</w>
f ood</w>
j unior</w>
buil dings</w>
Ch urch</w>
ell ing</w>
ch ampi
illi ams</w>
b om
deg ree</w>
S ome</w>
att ac
M ac
sing er</w>
rea ched</w>
mar ine</w>
S p
coun tries</w>
L ou
R .</w>
com man
new spap
uri ty</w>
la bor
qu es
C al
provi ded</w>
J er
bo x</w>
sh ould</w>
t am
ar ts</w>
ul t</w>
P h
V ic
Ac adem
Sy stem</w>
ess es</w>
eb all</w>
k ins</w>
s ar
jap anese</w>
da tes</w>
ell a</w>
li ving</w>
acc ep
s af
m us
ov i
ph il
Jap anese</w>
con serv
bur gh</w>
tournam ent</w>
run s</w>
e ks</w>
B en
approx imately</w>
w a</w>
Sta tis
b rou
al ism</w>
dou ble</w>
Stre et</w>
chil d</w>
d atabase</w>
d ram
S ha
associ ated</w>
mi d
em er
civi l</w>
cap ital</w>
oc key</w>
b ru
d ance</w>
198 9</w>
wh e
fem ale</w>
some times</w>
h op
ev ol
ch as
a e
B an
mp ic</w>
lu s</w>
Pe ter</w>
pe ter</w>
tex as</w>
collec tion</w>
ab ove</w>
ri ghts</w>
thea ter</w>
fin an
S mith</w>
C lu
we ek
ma r</w>
the re
g ers</w>
Fe der
Ro yal</w>
ans as</w>
T ex
wri ting</w>
w is
tor ial</w>
mi ch
manu fac
o t
b es</w>
Publi shing</w>
oun ded</w>
F oot
g le</w>
om s</w>
gener ally</w>
con ver
hn son</w>
lea der</w>
f ra
s in</w>
D em
stu dent</w>
al most</w>
L in
am i</w>
u tes</w>
p ing</w>
b ack
B or
n as
ca sting</w>
fi el
app lic
com mittee</w>
at ory</w>
ea ted</w>
z er</w>
stan ding</w>
Jap an</w>
Char les</w>
star t</w>
euro pean</w>
A .</w>
t un
incorpor ated</w>
sh e
ph en</w>
w all</w>
E l
con g
M edi
m ill
I t
ge ts</w>
char les</w>
C ap
Euro pean</w>
A ir</w>
O ly
An n
ali zed</w>
n ation</w>
and a</w>
M er
low er</w>
issu e</w>
gen e</w>
H all</w>
S pan
e z</w>
h and</w>
cro ss</w>
penn sylvania</w>
prac tice</w>
fu ture</w>
d son</w>
m it</w>
m i</w>
fam ous</w>
gradu ated</w>
in dian</w>
nat ure</w>
tor ia</w>
y e
P lan
e x</w>
v oc
te ll
c ement</w>
er o
dre w</w>
de al</w>
oc cur
mp ics</w>
Cent ral</w>
E m
w el
rela tion
tempor ary</w>
du ce</w>
Di rec
signi fic
Cam bridge</w>
ac coun
ir an</w>
t ch</w>
ro man
ma p</w>
sp anish</w>
be hind</w>
t ings</w>
si ble</w>
comm unic
wor th</w>
ac tor</w>
jap an</w>
re w</w>
In dian</w>
en ced</w>
campa ign</w>
def eated</w>
th i
Span ish</w>
y ers</w>
mit ted</w>
H a
Rich ard</w>
g un
ic le</w>
or ial</w>
stand ard</w>
l ength</w>
hosp ital</w>
N at
j i</w>
commis sion</w>
bel ow</w>
re vol
loc ation</w>
elec tions</w>
Pla ces</w>
sa chu
midd le</w>
b ow
Li brary</w>
ew ish</w>
A ir
read y</w>
tic ally</w>
aci fic</w>
tain ment</w>
set ts</w>
de st</w>
laun ched</w>
rich ard</w>
sho t</w>
to m</w>
D es
oper ations</w>
sachu setts</w>
x i
cis co</w>
C up</w>
Ger many</w>
en ted</w>
K ing</w>
our ces</w>
Acc essed</w>
ket ball</w>
R el
sci enti
W a
H igh
fri end</w>
ear li
198 8</w>
w an
m es</w>
res ted</w>
s onal</w>
ck y</w>
to o</w>
pho togra
esti g
ly ing</w>
statis tics</w>
ili ties</w>
c over</w>
chang es</w>
W om
com posed</w>
can adian</w>
f lu
represen ted</w>
a vi
possi ble</w>
rema ins</w>
j am
l an</w>
com es</w>
Can adian</w>
be th</w>
p in
da ted</w>
V ir
Mu seum</w>
ri age</w>
fi sh</w>
sk a</w>
un it</w>
win ning</w>
Po st</w>
g by</w>
t ra</w>
j ac
pl an</w>
b ay</w>
ch all
blu e</w>
oo ds</w>
y an</w>
il lu
li ber
academ y</w>
medi cal</w>
v ers</w>
C our
am e
pa ti
oo t</w>
P r
lea ding</w>
u lation</w>
M id
ev e</w>
par ish</w>
in ess</w>
rest ling</w>
D on
I ran</w>
ma ted</w>
po st
ri ch</w>
ant i</w>
t r
al ter
C o</w>
revi ews</w>
S um
M il
auth or</w>
m icro
cast le</w>
es sion</w>
K ar
chan nel</w>
g ing</w>
gra de</w>
qu es</w>
kn ow
z u
dom ain</w>
ti z
m on</w>
fin d</w>
Ch ina</w>
mo ve</w>
T u
li ves</w>
an ces</w>
ger many</w>
ab ly</w>
glo bal</w>
en tered</w>
s lo
star s</w>
regu lar</w>
tra de</w>
l led</w>
ch ina</w>
u ti
g rea
me an
P enn
at tle</w>
da r</w>
la tions</w>
ang eles</w>
g on</w>
g y
m 2</w>
indu stri
C ha
appe ars</w>
le dge</w>
D el
per son
i dae</w>
man s</w>
mov ement</w>
cour se</w>
sh ar
n an
ta tions</w>
oper ated</w>
sour ce</w>
russi an</w>
pres sion</w>
go ing</w>
disp la
Li fe</w>
al ed</w>
197 0</w>
l en</w>
pro file</w>
pa st</w>
H er</w>
commer cial</w>
el a</w>
A ward</w>
out side</w>
S we
ven tion</w>
C ri
st ance</w>
0 3</w>
high way</w>
leg al</w>
i ve</w>
0 6</w>
H am
rea d</w>
d ential</w>
k in</w>
program s</w>
b ill</w>
re duc
econom ic</w>
Fil m</w>
0 2</w>
D .</w>
hous es</w>
org an
min ister</w>
mon ey</w>
0 9</w>
G lo
go t</w>
M et
prote in</w>
et ing</w>
sc ore</w>
ov ers</w>
6 0</w>
t ress</w>
ci es</w>
en 's</w>
y land</w>
0 7</w>
W .</w>
tra ditional</w>
a c</w>
ell s</w>
pro fessor</w>
edi tor</w>
mo stly</w>
a u</w>
ri c</w>
s ters</w>
To p</w>
sp ent</w>
A wards</w>
h us
sen ior</w>
rac y</w>
dic tionary</w>
public ation</w>
am o
isla mic</w>
F ri
sur vey</w>
the ory</w>
brou ght</w>
ch icago</w>
Isla mic</w>
Foot ball</w>
charac teri
jour n
re spec
ad d
ist ry</w>
analy sis</w>
M el
198 7</w>
oun t</w>
me th
deci ded</w>
Ar t</w>
L os</w>
Tw o</w>
b l
vir ginia</w>
prin cip
0 8</w>
0 5</w>
D ic
fi t</w>
ex plo
H .</w>
foun dation</w>
fi ght</w>
ac y</w>
se x
h ap
tera ture</w>
wom an</w>
b att
lea st</w>
le e</w>
air port</w>
s n
sh i</w>
ta b
en ergy</w>
0 4</w>
g or
P resident</w>
s elected</w>
previ ously</w>
ro ll
E ducation</w>
Ar my</w>
ch i</w>
S im
co ast</w>
v el
inter view</w>
k m</w>
con ference</w>
I m
gu n</w>
ent ry</w>
e qui
consi sts</w>
vi ol
Govern ment</w>
eng ine</w>
mat ches</w>
ro r</w>
Clu b</w>
y u
E .</w>
Sci ence</w>
A R
h ard</w>
O f</w>
feat ure</w>
198 6</w>
le m</w>
num erous</w>
t ac
manag er</w>
ch ron
el e
bour ne</w>
H ea
proper ty</w>
li s
fa r</w>
la m
T ru
ul ts</w>
b ell</w>
ma kes</w>
i ous</w>
Recor ds</w>
ic ally</w>
au di
tion ally</w>
i o</w>
tro pical</w>
Li st</w>
ist an</w>
ra ised</w>
neigh bor
al i</w>
t ron
di sea
sh er</w>
Res earch</w>
provi des</w>
Offi cial</w>
c lar
c are</w>
th us</w>
comple x</w>
med al</w>
in i</w>
mo del
ei ther</w>
spor tation</w>
ov a</w>
198 5</w>
phi a</w>
ev id
th ro
inte rest</w>
ra di
D ar
su f
b it</w>
es pec
re t</w>
ag ricul
con f
a te
si ster</w>
s ac
high er</w>
appear ance</w>
compan ies</w>
Re port</w>
ho st</w>
compe ted</w>
fa irs</w>
per son</w>
high est</w>
im ent</w>
C u
town ship</w>
provi de</w>
F ar
b in</w>
issu es</w>
Penn sylvania</w>
run ning</w>
ch en</w>
G ol
am ember</w>
org ia</w>
m ir
R ed</w>
o se</w>
ann a</w>
pla t
z o
gre g
beg inning</w>
par ents</w>
Boo ks</w>
la del
ow er</w>
inv estig
re ly</w>
an ia</w>
m ond</w>
me ans</w>
3 .
Sta r</w>
g ent
a o</w>
w w
oo k</w>
ing ham</w>
i ally</w>
ra tive</w>
k m2</w>
previ ous</w>
Re gi
recor ding</w>
sco red</w>
or din
do or</w>
18 5
as h</w>
Di vision</w>
K en
ly wood</w>
stat us</w>
li a</w>
w ins</w>
im pro
v on</w>
in stead</w>
lea ves</w>
ovi et</w>
ve h
re quired</w>
it self</w>
ad van
M ag
c ks</w>
jer sey</w>
C ul
succ e
P ol
s ound</w>
tu s</w>
b o</w>
H or
on e
stor e</w>
musi cal</w>
ma ster</w>
k y</w>
n es</w>
dea d</w>
rea tened</w>
num bers</w>
tw are</w>
F u
ill board</w>
fore ign</w>
Ra il
no ted</w>
b ar</w>
S hi
I l
ex p
or ies</w>
regi onal</w>
re p
fin ally</w>
ladel phia</w>
ra el</w>
ni e</w>
Rus sian</w>
ke ts</w>
gen cy</w>
ex pec
ex hibi
espec ially</w>
v ar
F er
s k</w>
enti re</w>
T i
activi ties</w>
Boo k</w>
comm uni
sur r
to wards</w>
te le
Gre at</w>
at trac
198 4</w>
pol y
oc ca
C ong
administ ration</w>
Mo st</w>
val ley</w>
P a
Par ty</w>
sing les</w>
Mar tin</w>
si tes</w>
M ad
cul tural</w>
dig ital</w>
L a</w>
ga r</w>
ad es</w>
w th</w>
B ul
el and</w>
li t</w>
F ac
gre w</w>
d 's</w>
il le</w>
L .</w>
Euro pe</w>
V o
Ro ad</w>
Academ y</w>
por tra
S ar
hear t</w>
0 000</w>
P en
c overed</w>
fri ends</w>
wor ld
te er</w>
dow s</w>
al li
und ay</w>
ad op
col on
it alian</w>
attem p
A S
os oph
Ch icago</w>
s le
oper ation</w>
quar ters</w>
divi ded</w>
acc ess</w>
claim ed</w>
gr and</w>
It alian</w>
main ly</w>
materi al</w>
ri a</w>
tur n</w>
dom in
com ing</w>
E li
A T
b ol
sp ring</w>
c all</w>
illi on</w>
form ing</w>
cir cu
au tom
sol di
lem s</w>
B ir
W estern</w>
signific ant</w>
euro pe</w>
trac ks</w>
ograph ical</w>
C ur
them a
t te</w>
min utes</w>
or ing</w>
D ra
n i</w>
co st</w>
E ar
O ri
Ang eles</w>
off ers</w>
Bo ard</w>
increas ed</w>
en cyclopedia</w>
vi ew
ocra tic</w>
ad ditional</w>
es cap
an cient</w>
ma tes</w>
bu ried</w>
an y
subsequ ently</w>
2 5
me chan
eme tery</w>
ci ties</w>
moun tain</w>
bas ketball</w>
li p</w>
per sonal</w>
h ours</w>
individu al</w>
y o
er t</w>
ha vi
ack son</w>
se ts</w>
A ss
th ur</w>
k h
o il</w>
Tex as</w>
pas sed</w>
za beth</w>
ow n
P ra
gen ce</w>
religi ous</w>
im medi
Wom en</w>
co de</w>
s and
ic an</w>
Histor ical</w>
mar riage</w>
fi gu
B est</w>
c ab
ci dent</w>
ann e</w>
produc er</w>
a di
g ram
S ince</w>
broad cast</w>
C y
Dic tionary</w>
f y</w>
tre at
ch air
B lu
tra in</w>
fi les</w>
D o
en ni
en z
y our</w>
ad ap
ta x
g an</w>
bo y</w>
gra ph</w>
open ing</w>
id es</w>
r and</w>
desig n
I N
m ale</w>
e e</w>
0 .
C E
Hen ry</w>
col or</w>
j i
in stru
8 5</w>
ed y</w>
tur ned</w>
198 2</w>
K o
ch inese</w>
for ced</w>
Publi c</w>
h o</w>
her itage</w>
198 3</w>
ass embly</w>
ir o</w>
bor ough</w>
th or
go es</w>
f lorida</w>
s om
no tes</w>
al ways</w>
m inal</w>
S am
Is land</w>
initi ally</w>
compu ter</w>
k ansas</w>
leg isla
v in
so li
nes ota</w>
we b</w>
c ers</w>
serv es</w>
allow ed</w>
suppor ted</w>
ar dian</w>
cu st
Ch inese</w>
ent ing</w>
de x</w>
ver se</w>
plan ts</w>
con fir
tem ple</w>
st e</w>
sch edu
d w
ty pes</w>
t as
lo ss</w>
G .</w>
bas eball</w>
O ther</w>
cas es</w>
A p
me dic
Gu ide</w>
newspap er</w>
sh own</w>
plan s</w>
poli cy</w>
sec urity</w>
Z ealand</w>
construc ted</w>
commis sion
ac quired</w>
ou l
dif fic
aul t</w>
L or
K u
on ia</w>
ra tes</w>
H e
T ech
c is</w>
196 0</w>
des pite</w>
po ol</w>
hen ry</w>
t ario</w>
em a</w>
tech ni
ear ned</w>
inte rac
su n</w>
af fec
al ex
ide a</w>
re ment</w>
st ations</w>
i sts</w>
ti an</w>
ore a</w>
bi shop</w>
O p
ever y
mar tin</w>
t ol
to s</w>
P .</w>
y outh</w>
ch am
c ell</w>
po se</w>
ca th
comm une</w>
fore st</w>
ke ep
tu gu
stra ted</w>
albu ms</w>
mach ine</w>
s burg</w>
T ea
F ore
et ry</w>
de b
offi cer</w>
The ir</w>
F ol
on a
ond ary</w>
disc us
en i
ir a</w>
govern or</w>
j or
p un
k ings</w>
j o</w>
speci fic</w>
M ov
produc ts</w>
fi li
finan cial</w>
g in</w>
o ts</w>
qu ick
organi zed</w>
go al</w>
s un
8 0</w>
poli tics</w>
d un
y n</w>
relation ship</w>
ap ol
M any</w>
sh ers</w>
el le</w>
chap ter</w>
is on</w>
o p</w>
rec ep
M y
E R
execu tive</w>
n is</w>
sh er
A pp
comm and</w>
l i</w>
z ealand</w>
pp ing</w>
w ol
ta king</w>
pass eng
t ting</w>
C ath
em an</w>
c lin
org an</w>
7 8</w>
arti sts</w>
Bus iness</w>
evid ence</w>
m ine</w>
pres er
re pres
em s</w>
gro wth</w>
in er</w>
ne ar
alo g</w>
K ing
con sin</w>
h old</w>
prob lems</w>
n d</w>
s ter
cam pus</w>
cer tain</w>
Mar k</w>
mor ning</w>
Champion ship</w>
hy dro
m un
ten ce</w>
E r
Com mission</w>
C ra
B BC</w>
ani an</w>
de fin
Whi te</w>
d one</w>
li k
offici ally</w>
b ig
La ke</w>
pur chas
psy ch
vo te</w>
Ac cording</w>
M ur
sec u
p y
wa ter
B lo
lu m</w>
s wit
is s</w>
m o</w>
bi an</w>
ven ue</w>
fol k</w>
mon th</w>
bro thers</w>
ci tiz
ri e</w>
ta tive</w>
hous e
in side</w>
ad ed</w>
oo gle</w>
Af rica</w>
S tra
ill a</w>
vari ety</w>
3 5</w>
charac ters</w>
tugu ese</w>
champion ships</w>
N ames</w>
s wi
wor ds</w>
C lar
z ine</w>
H y
as ter</w>
of fered</w>
On line</w>
T ro
s sic</w>
18 4
effec t</w>
el low</w>
serv ing</w>
N o</w>
stor ies</w>
In di
can cer</w>
ter a</w>
A N
st and</w>
T y
ar i</w>
be tter</w>
spi ri
se l</w>
ea e</w>
ra ther</w>
pa red</w>
Ale x
ell ed</w>
t tish</w>
sp r
H el
re qui
pri mar
teri or</w>
u el</w>
ay a</w>
inc re
th in
Bla ck</w>
d ges</w>
il a</w>
me tho
vo ice</w>
b ad
ta u
F C</w>
Y ou</w>
becom es</w>
D ou
mar i
disc overed</w>
ci an</w>
af rica</w>
re d
li cen
chri stian</w>
arri ved</w>
par liament</w>
L eg
Chri stian</w>
str a</w>
E v
gradu ate</w>
w eight</w>
En cyclopedia</w>
197 9</w>
poli tici
k ish</w>
activi ty</w>
il ing</w>
s i</w>
A ra
ex is
bur n</w>
ul ty</w>
bu t
d r</w>
ta ining</w>
v a
ter ms</w>
o '
re a</w>
fa st</w>
cap tain</w>
ren amed</w>
si des</w>
rec ent</w>
o v</w>
e duc
f ted</w>
C as
cam p</w>
di cated</w>
near by</w>
hon or</w>
ore an</w>
pap er</w>
dist ric
in ju
f light</w>
lea ving</w>
design ated</w>
F oun
ru les</w>
multi ple</w>
par is</w>
treat ment</w>
d le</w>
go als</w>
f un
li terature</w>
sof tware</w>
198 1</w>
dar k</w>
st an</w>
v is</w>
c ric
dec ision</w>
h ockey</w>
cau sed</w>
al y</w>
win ner</w>
ex clu
dist inc
ca teg
F es
me tal</w>
z il</w>
sur face</w>
vic tory</w>
Bi ography</w>
igh ts</w>
man i
car olina</w>
wa y
b il
Par is</w>
d ale</w>
I reland</w>
T a
gi ve</w>
promo ted</w>
c us</w>
all ed</w>
v ely</w>
k at
f al
situ ated</w>
long er</w>
pri son
ti a</w>
we eks</w>
continu es</w>
pu l
to wer</w>
P an
cu t</w>
c over
win ter</w>
G ro
g as</w>
ag u
S il
ver sus</w>
reg ar
p re</w>
re y</w>
tw or
t 's</w>
pr o</w>
c el</w>
com po
af ter
Qu e
u es</w>
Sur vey</w>
R an
ev in</w>
t ree</w>
ser ve</w>
eg o</w>
f red</w>
ul l</w>
an ds</w>
ce re
publi can</w>
en ing</w>
ri er</w>
ne arly</w>
Y ear</w>
primar ily</w>
sta dium</w>
f ru
7 0</w>
spe ed</w>
king dom</w>
er 's</w>
organi z
over all</w>
pa in</w>
M ary</w>
j ury</w>
be havi
az z</w>
sett lement</w>
3 2</w>
g ate</w>
effec ts</w>
m as</w>
La w</w>
villa ges</w>
la bel</w>
dram a</w>
D ea
M aga
D ay</w>
s ay</w>
L ab
experi ence</w>
ow ard</w>
S to
H ill</w>
th u
M em
heav y</w>
pro min
gu s</w>
engine ering</w>
may or</w>
ar ran
tran si
m outh</w>
habit ants</w>
tran sport</w>
Ra dio</w>
presen ted</w>
y e</w>
197 8</w>
th ought</w>
ad or</w>
qu ality</w>
hel ped</w>
lea ve</w>
app ear</w>
mon t</w>
academ ic</w>
n am</w>
c ause</w>
sig n
ak er</w>
af rican</w>
struc tion</w>
i reland</w>
ul a</w>
Bro wn</w>
resi dents</w>
champi on</w>
fa iled</w>
maj ority</w>
ul arly</w>
wa i
di tionally</w>
pri or</w>
s ell</w>
B re
Af rican</w>
oc cer</w>
beg ins</w>
la u
c es
destro yed</w>
re ferred</w>
all ery</w>
tor ies</w>
ali sts</w>
ry ing</w>
h our</w>
Bro ad
ag ency</w>
Cour t</w>
form at</w>
9 0</w>
at re</w>
no te</w>
o es</w>
bu d
col labor
tri al</w>
ba sic</w>
re ference</w>
Statis tics</w>
S ports</w>
rac ing</w>
mi xed</w>
Pop ulation</w>
ho t</w>
pres sed</w>
lan tic</w>
ad ron</w>
2 4
n ell</w>
ex tre
direc t</w>
i ds</w>
li an</w>
gir l</w>
en ge</w>
disea se</w>
in duc
v ard</w>
mea su
in ts</w>
ob serv
in dic
brea k</w>
I s</w>
m ers</w>
sc en
lo ok</w>
m exico</w>
ur ban</w>
j es
Le e</w>
e ding</w>
particip ated</w>
is pan
i th</w>
in spi
ru gby</w>
pro ce
car s</w>
de termin
sto p</w>
sc ul
separ ate</w>
197 6</w>
H on
A th
partic ularly</w>
issu ed</w>
sil ver</w>
ne ed</w>
co ach
inter net</w>
G ames</w>
ge ographic</w>
j an</w>
sea sons</w>
tro ops</w>
bi o
US A</w>
in habitants</w>
t ag
gen e
w an</w>
manag ed</w>
et on</w>
posi tive</w>
j an
om a</w>
bo t
L oc
candi date</w>
ran t</w>
and er
ac tress</w>
b on</w>
b ron
incorpor ates</w>
I II</w>
p a</w>
sch ol
D en
pic ally</w>
li ghts</w>
sel ves</w>
r ural</w>
pas s</w>
giv es</w>
rema ining</w>
B ru
Dev elop
tu ally</w>
ner ship</w>
bo ston</w>
corpor ation</w>
car ried</w>
sec ondary</w>
y l</w>
re qu
jo in</w>
Ch an
nav y</w>
ai red</w>
k ir
ta il</w>
pri ze</w>
lev els</w>
earli er</w>
mich igan</w>
al le
ti tu
Tim e</w>
Th at</w>
S pr
ll a</w>
langu ages</w>
Tech n
L ar
quick ly</w>
ali ties</w>
197 4</w>
O b
te lli
o hio</w>
min or</w>
Al bu
en ding</w>
ad ver
197 7</w>
win ners</w>
y et</w>
pri son</w>
197 5</w>
Wh ile</w>
il ton</w>
k u</w>
gran d
F am
me eting</w>
Fes tival</w>
fin als</w>
bir th</w>
func tion</w>
T e
res ources</w>
k an
j e
197 2</w>
Col um
lar ger</w>
c on</w>
po ten
ph one</w>
u pper</w>
sh a</w>
chil d
al ready</w>
secre tary</w>
mas sachusetts</w>
sum ed</w>
l or</w>
n it
f ro
chair man</w>
se arch
house holds</w>
pu r</w>
teach er</w>
ro ll</w>
U p
Jo seph</w>
wom en's</w>
R ea
der ship</w>
j ef
cap ac
Maga zine</w>
st ated</w>
c um
G al
stre am</w>
exten ded</w>
ens land</w>
lo t</w>
H um
c ore</w>
c ry
gre en
y ment</w>
physi cal</w>
c z
ten ant</w>
bor der</w>
Ne twork</w>
ol ution</w>
195 0</w>
succe eded</w>
des h</w>
un a</w>
G az
Cor por
public ations</w>
3 3</w>
C at
la bor</w>
posi tions</w>
St an
v or</w>
is lands</w>
becom ing</w>
in depen
li ter
ho tel</w>
ow a</w>
M exico</w>
entu cky</w>
l ers</w>
194 5</w>
v in</w>
fir m</w>
stop her</w>
po p</w>
cro w
assi stant</w>
figh ting</w>
men tioned</w>
an n</w>
2 6
su e</w>
on ed</w>
y d</w>
ra pi
cell s</w>
wor kers</w>
J ef
st y
cre w</w>
elec tron
as on</w>
hus band</w>
Bu t</w>
star ting</w>
pa ir</w>
we alth</w>
z e
Com mittee</w>
ho sted</w>
ga ined</w>
cre ate</w>
Sta tion</w>
s at
al ing</w>
il la
rec ently</w>
l on
lo g
purchas ed</w>
fi g
F o
M an</w>
v ation</w>
sp ar
ac tions</w>
wh om</w>
foot b
For ce</w>
to p
comm only</w>
high ly</w>
L it
h ag
auth ori
Gre en</w>
H eal
do w</w>
ri son</w>
M us
sub ject</w>
nav al</w>
de dicated</w>
p ag
me et</w>
is tered</w>
An d</w>
bran ch</w>
appear ances</w>
ben e
trans ferred</w>
ar gu
ig i
M ill
don e
t ton</w>
p ment</w>
m am
D un
ing ly</w>
i rish</w>
M ay
sc ale</w>
I rish</w>
cli mate</w>
n on
b une</w>
jo seph</w>
i si
F .</w>
3 6</w>
P S
Vol ume</w>
model s</w>
ra m</w>
Ar ts</w>
b illion</w>
pro jects</w>
bo ys</w>
h at
cer ti
p el
ph a</w>
su sp
b i</w>
sc ene</w>
them selves</w>
om p
bla ck
dec la
z ona</w>
ell er</w>
te ro
ta x</w>
u res</w>
incre ase</w>
th a</w>
est ate</w>
A C
sel y</w>
cong ress</w>
foun der</w>
esti mated</w>
phil osoph
F I
in ian</w>
s ales</w>
Con serv
Ser ies</w>
jo b</w>
cap tured</w>
ill in
el ess</w>
con temporary</w>
immedi ately</w>
ma thema
197 1</w>
ty pically</w>
197 3</w>
v ent
al ty</w>
o 's</w>
A g
W at
poli tan</w>
im um</w>
pro duce</w>
im a</w>
w ings</w>
la g</w>
ac tiv
G or
or ado</w>
consi der
E S
s li
oun ding</w>
ro man</w>
head quarters</w>
ali a</w>
con te
st ock</w>
20 0</w>
Ci vi
S qu
p ounds</w>
i g</w>
In du
ha w
influ ence</w>
ic les</w>
at ure</w>
bo at</w>
wea p
broad casting</w>
mo th</w>
d d</w>
K a
cri tical</w>
tau ght</w>
Y oun
n ea
La ter</w>
Bo th</w>
advan ced</w>
r d</w>
ep t</w>
amp les</w>
y ard</w>
sta ur
respon se</w>
f r
there fore</w>
b en</w>
architec ture</w>
F a
fa ir</w>
stor m</w>
inc ol
3 8</w>
tim ate</w>
y ond</w>
er ly</w>
Spec ies</w>
da d</w>
sh ap
le gen
G ri
l ins</w>
del y</w>
3 7</w>
P res
tic a</w>
gener ation</w>
Feder al</w>
ispan ic</w>
sh all</w>
elec tric</w>
si vely</w>
fac ilities</w>
sh oo
e dia</w>
A la
s or</w>
ma x
produc t</w>
R ol
elec tri
b ing</w>
eu tenant</w>
sof t</w>
pr int</w>
enter tainment</w>
Ch il
Vir ginia</w>
R am
7 5</w>
week ly</w>
beli eved</w>
ol dest</w>
po or</w>
fre e
capac ity</w>
n ish</w>
sour ces</w>
tru e</w>
sol o</w>
illin ois</w>
distric ts</w>
D ec
univer si
tor al</w>
t z
wor k
re moved</w>
F L</w>
partic ular</w>
poli sh</w>
gir ls</w>
administ rative</w>
direc tly</w>
fac t</w>
sig ns</w>
recogni zed</w>
fic tion</w>
wi dely</w>
jus tice</w>
cri tics</w>
trav el</w>
vi ews</w>
soldi ers</w>
O per
read ing</w>
continu e</w>
mov ing</w>
r ence</w>
ru le</w>
196 8</w>
ch ur
J ones</w>
f ell</w>
or a</w>
ro ck
ref lec
the sis</w>
ac comp
no table</w>
S ev
politici an</w>
d t</w>
ne tt</w>
Rom an</w>
3 4</w>
le w
B ec
ffi c</w>
Ed ward</w>
Foun dation</w>
ma d
tow ns</w>
ru p
Bi g</w>
Sec ond</w>
le ton</w>
blo od</w>
meth od</w>
b au
ali zation</w>
w restling</w>
prob lem</w>
su bur
d '
Wh o</w>
deta ils</w>
t ment</w>
s u</w>
com edy</w>
. C</w>
pa th
bo x
con ditions</w>
Ge ographic</w>
respon sible</w>
as signed</w>
cath olic</w>
ol der</w>
d al
nor wegian</w>
ge ological</w>
Ch ap
ona than</w>
far m</w>
pri se</w>
fiel ds</w>
reve aled</w>
ac ting</w>
fre y</w>
th reatened</w>
ac ute</w>
f alls</w>
is tic</w>
ed ward</w>
al low</w>
et teer</w>
ev al</w>
un known</w>
D ut
ar ms</w>
g on
li c</w>
P ho
b each</w>
occu p
b ab
Sy dney</w>
and y</w>
G rand</w>
Poli sh</w>
g las</w>
tim ore</w>
G a
sco tt</w>
repor ts</w>
ra il</w>
t um
B ay</w>
form erly</w>
environ ment</w>
min us</w>
ma d</w>
j e</w>
d al</w>
H un
k es
Jer sey</w>
af fili
ro ads</w>
char ts</w>
U C
196 9</w>
tit led</w>
im mig
re fer
on ds</w>
H an
h em
R en
episo des</w>
mean ing</w>
ow ner</w>
j ones</w>
distribu tion</w>
vol un
wh ole</w>
R ou
Sa int</w>
i z
h ou
ar rested</w>
or ders</w>
Cath olic</w>
ther ap
buil d</w>
contro ver
Nor wegian</w>
fel low</w>
N A</w>
Res ults</w>
flo or</w>
ro se</w>
t old</w>
dam age</w>
Sco tt</w>
4 .
f ly</w>
k ri
tell s</w>
sour i</w>
Ab out</w>
in vi
for ward</w>
4 5</w>
di ver
inte gra
g et
minist ry</w>
ay lor</w>
b ly</w>
appro ach</w>
pr inc
ther lands</w>
sy dney</w>
introduc tion</w>
Nav y</w>
er o</w>
pea ce</w>
F A</w>
val ue</w>
Pro duc
S ol
statis tical</w>
ric s</w>
de ep</w>
el ements</w>
el im
f oot</w>
dri ve</w>
te s
u l</w>
dem on
is ing</w>
mar ks</w>
de tec
tran sportation</w>
ma ss</w>
W e</w>
orig in</w>
sett led</w>
D om
Tea m</w>
3 9</w>
la hom
W illiams</w>
auth ority</w>
prob ably</w>
W ales</w>
exper im
chri st
hor se</w>
the w</w>
og s</w>
her ald</w>
Bo ston</w>
lor d</w>
V en
si r</w>
conf lic
ni c</w>
ab and
tem per
p le
ag ent</w>
w ood
di c</w>
cou ple</w>
b les</w>
cla im</w>
F lorida</w>
K e
inte lli
pa edia</w>
cla sses</w>
pro posed</w>
w ales</w>
Chri s</w>
av o
S ea
all en</w>
ma il</w>
ir on</w>
cere mon
industri al</w>
W ol
el son</w>
rema in</w>
fa ir
Li ber
chri s</w>
offi cers</w>
g an
D aniel</w>
char ge</w>
c rea
t rou
as ked</w>
Cong ress</w>
Her ald</w>
T .</w>
e ing</w>
effec tive</w>
over y</w>
P ap
tur ing</w>
lear ning</w>
Ma p</w>
W ay
K i
ne eded</w>
scul p
fig ure</w>
ma tic</w>
k al
ri se</w>
c ard</w>
tivi ty</w>
A no
fac ility</w>
for ts</w>
iv ing</w>
low ing</w>
d aniel</w>
W eb
am eric
nom inated</w>
nin gs</w>
M ul
v ince</w>
off er</w>
is a</w>
expan ded</w>
g ely</w>
suf fered</w>
en em
b ad</w>
En ter
E di
fi ci
sm aller</w>
cou ra
expec ted</w>
196 7</w>
retur ns</w>
per man
pow er
lahom a</w>
s elec
scienti fic</w>
promin ent</w>
L at
con su
initi al</w>
w illiams</w>
lo ad</w>
re staur
N a
N um
adop ted</w>
A ri
B ill</w>
f lor
edu cated</w>
clu bs</w>
wh i
Un iver
lik ely</w>
ant ry</w>
An drew</w>
mis sion
or dered</w>
es ted</w>
d g
ant as
re v
der ick</w>
di ag
m ess
O ld</w>
pre me</w>
bir ds</w>
t ant</w>
foc us</w>
br and</w>
princip al</w>
ol as</w>
Tor onto</w>
wan ted</w>
dist ance</w>
ex cept</w>
ri ce</w>
mis si
saf ety</w>
N u
gu ard</w>
D oc
B ea
Jo hnson</w>
di os</w>
Nor thern</w>
m es
dy nam
2 9
plat form</w>
Mich igan</w>
Su b
J us
ar ia</w>
gro wing</w>
gre ek</w>
su it</w>
h app
k now</w>
y ellow</w>
le gi
J es
T own</w>
nor mal</w>
ra in</w>
li m</w>
bir d</w>
frequ ently</w>
Man ag
bar a</w>
ex pla
f ame</w>
J ac
oper ating</w>
russi a</w>
Corpor ation</w>
f are</w>
Gre ek</w>
c overs</w>
ear th</w>
terri tory</w>
reser ve</w>
ta tives</w>
aw a</w>
shor tly</w>
T al
2 8
D atabase</w>
blo ck</w>
wh ose</w>
v el</w>
emp ire</w>
z one</w>
concer t</w>
sp lit</w>
W el
am ount</w>
mo di
ar c
ari ty</w>
tra ins</w>
defen se</w>
Develop ment</w>
decla red</w>
u a</w>
ti e</w>
sem i</w>
pro mis
U N
cop ies</w>
nu clear</w>
Lou is</w>
tor onto</w>
Ac t</w>
conserv ation</w>
con om
mar ked</w>
Chri st
mis ter</w>
gu il
t act</w>
gui tar</w>
accep ted</w>
hy si
ch en
T om</w>
g il
G la
j um
al an</w>
is s
sk i
I C
D av
ti le</w>
M ach
vo tes</w>
pa id</w>
lou is</w>
re ach</w>
st am
com par
s son</w>
tit les</w>
H al
fin ds</w>
der son</w>
z i</w>
den s</w>
ran ked</w>
M oun
Her itage</w>
and rew</w>
confir med</w>
Ano ther</w>
Pro ject</w>
cyclo paedia</w>
u tionary</w>
sh ment</w>
te l
ter nal</w>
lipp ines</w>
c emetery</w>
inv est
re rs</w>
fran cisco</w>
equi pment</w>
a p</w>
let ters</w>
organiz ations</w>
be c</w>
tw ice</w>
j ack</w>
Cent re</w>
medic ine</w>
P as
claim s</w>
plan ned</w>
connec ted</w>
cro ss
con clu
re ci
af fairs</w>
j ar
B ran
ch ro
prin ted</w>
defin ed</w>
communi ties</w>
ess ing</w>
ac ts</w>
youn ger</w>
ke ep</w>
Ge ological</w>
Bu il
ro oms</w>
To day</w>
Sou thern</w>
con tent</w>
lea dership</w>
municip al</w>
b lin</w>
el i</w>
Val ley</w>
D ef
Pe ople</w>
imp act</w>
E ach</w>
l ined</w>
per or</w>
m m</w>
pi ece</w>
Youn g</w>
s ong
Ste phen</w>
sto red</w>
z ar
L y
K .</w>
im e</w>
con cept</w>
E conom
ak a</w>
tra ffic</w>
en tation</w>
sur g
jo hnson</w>
dra ft</w>
al g
rela tions</w>
ag a</w>
ev a</w>
Sum mer</w>
jec ted</w>
v ent</w>
a sia</w>
pu ty</w>
du tch</w>
ri an</w>
dru g</w>
ima ge</w>
anim als</w>
w oo
ju dge</w>
King dom</w>
Dut ch</w>
ap ore</w>
Stu dies</w>
n or</w>
sc op
lea ders</w>
emplo yed</w>
ha r</w>
ph en
Al so</w>
b le
techn ical</w>
ver sions</w>
po s
on ic</w>
2 7
chall eng
Ch art</w>
gar den</w>
bea t</w>
allow s</w>
conduc ted</w>
oper a</w>
li on</w>
om er
R A
chem ical</w>
Sch o
ba sis</w>
e a</w>
y ards</w>
th ings</w>
R ock</w>
I f</w>
or t</w>
L and</w>
B .</w>
f an</w>
u x</w>
b ou
Th ree</w>
feder ation</w>
ly n</w>
al u
am i
sh el
C li
bro w
ly n
la tter</w>
le y
é e</w>
is es</w>
ste phen</w>
m ill</w>
tre es</w>
lo ck</w>
ti st</w>
E mp
n ations</w>
p ay</w>
I tal
Ass embly</w>
teach ing</w>
scri p
ky o</w>
Mi ke</w>
lan e</w>
stra tion</w>
mem ory</w>
mi ke</w>
196 4</w>
footb aller</w>
196 5</w>
photogra ph
ro les</w>
ti m</w>
cy cle</w>
trans lated</w>
5 00</w>
196 6</w>
K n
ra ces</w>
fran k</w>
E as
uni que</w>
o ted</w>
st al</w>
ea si
lar gely</w>
pat ri
5 .
war t</w>
R og
win dows</w>
p acific</w>
ex ican</w>
j ewish</w>
M y</w>
se ats</w>
Gre en
Ma j
Fran k</w>
Rail way</w>
cre ek</w>
i ted</w>
gu es</w>
b ought</w>
j unc
occur s</w>
individu als</w>
C D</w>
know ledge</w>
ge orgia</w>
E l</w>
J ewish</w>
Y u
pas ses</w>
et a</w>
Nor th
educ ational</w>
pa k
attac ks</w>
j azz</w>
su g
op port
k on
ant ly</w>
occur red</w>
comman der</w>
el e</w>
ran k</w>
prac tic
t ted</w>
comple tely</w>
P acific</w>
C O
ad y</w>
bri an</w>
app lied</w>
f as
pain ting</w>
la p
de fini
po ss
Heal th</w>
mem orial</w>
Bri tain</w>
gla ss</w>
world wide</w>
D or
archi ve</w>
ta h</w>
colum bia</w>
s ab
omp son</w>
le tter</w>
T aylor</w>
P ak
el ing</w>
g over
194 0</w>
Par liament</w>
ac eae</w>
ti er</w>
ak i</w>
en jo
applic ations</w>
pp i</w>
ch ec
sh are</w>
le ts</w>
per ial</w>
Mo der
m ent
f ying</w>
D e</w>
th re
mo b
hi p</w>
M ore</w>
fac tory</w>
alter native</w>
edi ted</w>
k ill</w>
yl or</w>
O hio</w>
Min ister</w>
o red</w>
an 's</w>
s ary</w>
s na
A l</w>
su per</w>
D ata</w>
D ig
pi ed</w>
g ary</w>
sch e</w>
os en</w>
stru gg
fu r</w>
s au
artic les</w>
imp lem
grea ter</w>
k ov
scre en</w>
19 30</w>
star ts</w>
tra dition</w>
ch er
Ital y</w>
M ol
d den</w>
a b</w>
K er
qu een</w>
L ove</w>
High way</w>
attem pt</w>
econom y</w>
Mar i
cust om
metho ds</w>
stri a</w>
figu res</w>
follow s</w>
nec ess
squ ad</w>
comp on
B ow
P ic
applic ation</w>
s occer</w>
ab ri
H ow</w>
con cent
b un
environ mental</w>
p rec
b and
fri end
d ry</w>
all as</w>
enn y</w>
F la
P it
wea ther</w>
Glo bal</w>
em e</w>
k ept</w>
igh t
M it
S ir</w>
Tran s
ti ally</w>
lin k</w>
Car olina</w>
pri ce</w>
sh ops</w>
arch ae
a ke</w>
m r</w>
lu m
T am
G ame</w>
sci ences</w>
inter pre
dec or
call s</w>
credi ted</w>
shi on</w>
re pla
gu est</w>
Sec re
agre ed</w>
ha i</w>
ch or
C er
cric ket</w>
th ly</w>
fac tor</w>
secre t</w>
a si
ts burgh</w>
materi als</w>
ili tary</w>
wh y</w>
atten tion</w>
M un
ch ase</w>
Champion ships</w>
ta ylor</w>
u la
sex ual</w>
it aly</w>
f ans</w>
T own
S tor
emplo ye
re sp
hi ts</w>
docum entary</w>
in et</w>
rece ive</w>
G ir
v ac
ur s</w>
protec tion</w>
our ce</w>
diffic ult</w>
6 .
mon t
ro p
W is
Su per
bro ke</w>
bi ology</w>
laun ch</w>
U l
poten tial</w>
milli meters</w>
tem ent</w>
mur der</w>
isi ana</w>
mo tor
success fully</w>
liam entary</w>
f ine</w>
proper ties</w>
ga in</w>
ap par
H ome</w>
or g</w>
U r
B A</w>
ci ans</w>
fund ing</w>
m om
resi dential</w>
tur ns</w>
com ic</w>
Colum bia</w>
et t</w>
con sul
d life</w>
incol n</w>
19 20</w>
t ta</w>
de bu
pro to
res cu
them e</w>
reti rement</w>
gi e</w>
ro w
L L
j im</w>
Vic toria</w>
on ian</w>
com o
s z
en ough</w>
agre ement</w>
s ten
E u
au to
visi t</w>
ad ult</w>
fec t</w>
St ar
Wh at</w>
pres sure</w>
tic ut</w>
ro ber
C el
fac es</w>
J ack</w>
J im</w>
la ck</w>
fe e</w>
Al though</w>
ric ane</w>
po ses</w>
lo v
en se</w>
che stra</w>
mer ged</w>
g ade</w>
ap ar
con ven
identi fied</w>
survi ved</w>
en na</w>
oly mpics</w>
ag ing</w>
tru st</w>
zer land</w>
a qu
ig er
oc ese</w>
k am
reg iment</w>
go d</w>
ber lin</w>
ex change</w>
achi eved</w>
se g
con tra
A li
Oly mpics</w>
it 's</w>
comb at</w>
Se e</w>
religi on</w>
S pi
anim al</w>
4 2</w>
pr ince</w>
in jury</w>
Wil son</w>
A .
d or</w>
part ner</w>
b ach</w>
cap ita</w>
indi ana</w>
ra ting</w>
Inter net</w>
occu pied</w>
d ley</w>
fac ed</w>
L and
we red</w>
ris k</w>
Col lec
surr ounding</w>
simp le</w>
i j
w ise</w>
classi cal</w>
phi ladelphia</w>
gran ted</w>
Ad minist
be yond</w>
A sia</w>
L ine</w>
pe ti
plan ning</w>
cla ssic</w>
or k
ste el</w>
Ter ri
ly rics</w>
S he
neighbor hood</w>
visi ted</w>
sp ac
M en</w>
vic toria</w>
pati ents</w>
de par
reduc ed</w>
cri me</w>
it ing</w>
W est
H in
Ro ber
te dly</w>
prog res
re l</w>
ang er</w>
s elling</w>
ran ce</w>
t led</w>
fer ing</w>
i zed</w>
ssi ppi</w>
La w
we st
ga tive</w>
sen ate</w>
K el
n ard</w>
pil ot</w>
Comm unity</w>
ef forts</w>
sec tor</w>
par ties</w>
196 2</w>
n ur
plan e</w>
l '
Sou th
M ed
don ald</w>
swe dish</w>
T re
s ch</w>
regi ons</w>
fle et</w>
ed ge</w>
Fran cisco</w>
v inc
la ws</w>
ther ine</w>
r are</w>
7 .
mob ile</w>
196 3</w>
fa vor
chall enge</w>
Civi l</w>
lea ds</w>
ec es</w>
tor ate</w>
in ations</w>
bin son</w>
Qu een</w>
Swe dish</w>
oli shed</w>
W ri
di pl
ell o</w>
kin d</w>
ch osen</w>
L ew
ong side</w>
ea sed</w>
at i</w>
dro pped</w>
ligh tly</w>
Recor d</w>
h as
ak es</w>
at ta
s mo
st ay</w>
eigh ties</w>
squ adron</w>
sequ ence</w>
gol den</w>
me tro
tri ed</w>
the d
v es
T om
tu m</w>
R E
Fol lowing</w>
al one</w>
oper ates</w>
habit at</w>
pur pose</w>
Comp le
ke e</w>
vo l</w>
pri me</w>
f ts</w>
en ter</w>
in fec
attac ked</w>
mar yland</w>
Pro vince</w>
po etry</w>
quali fied</w>
de pic
oly mpic</w>
moun t</w>
mon um
dist in
direc tion</w>
k ar</w>
swi m
j ean</w>
bri tain</w>
w es
d as</w>
t ch
pi one
dra wn</w>
wil son</w>
win d</w>
wri ters</w>
offi ces</w>
fol low</w>
S har
Con ference</w>
dom es
So cial</w>
i ans</w>
behavi or</w>
Sco tland</w>
O s
p ages</w>
appro ved</w>
S us
he im</w>
do g</w>
i k
aw are</w>
s unday</w>
Alex ander</w>
ore gon</w>
conver ted</w>
S at
gran t</w>
grea test</w>
uti li
ar m
a sian</w>
fou ght</w>
S k
n y
ey e</w>
do s</w>
min nesota</w>
6 5</w>
4 7</w>
lo aded</w>
inspi red</w>
u d</w>
s ound
Oly mpic</w>
hu mans</w>
resi ding</w>
w o
communic ations</w>
4 1</w>
ti l
ar m</w>
liter ary</w>
et nam</w>
m ight</w>
Blu e</w>
su gg
au gu
jo hn
ha y
4 8</w>
T our</w>
r al
ac tually</w>
be red</w>
B attle</w>
j r</w>
ist ing</w>
d enti
r as</w>
gh ton</w>
Rus sia</w>
comb ined</w>
z en</w>
l ess
wil d</w>
n an</w>
indepen dence</w>
Mar ine</w>
di vor
accoun t</w>
min is
t ann
Ann ual</w>
av en
nom ination</w>
Lit tle</w>
lar ly</w>
twor ks</w>
al pha</w>
p ack
electron ic</w>
sion ally</w>
giv ing</w>
stan ds</w>
P rin
Ste ve</w>
x on</w>
196 1</w>
struc tures</w>
ste ve</w>
en coura
iver sary</w>
S ig
beg in</w>
G il
C oo
al ongside</w>
E p
st ood</w>
J .
5 5</w>
ob tained</w>
ea se</w>
ang el
cor rec
Au th
wis consin</w>
lo an</w>
philosoph y</w>
E R</w>
Ch ron
e v</w>
U p</w>
performan ces</w>
D V
or i</w>
a str
jo int</w>
B S</w>
Sim on</w>
ex ist</w>
achi ev
h ung
er re</w>
sh op
Coun try</w>
alex ander</w>
Eng ine
rela tively</w>
8 .
as es</w>
g al</w>
ga ret</w>
h ong</w>
cho ice</w>
C A
ck er</w>
S pain</w>
tal k</w>
evol ution</w>
han ds</w>
re comm
dem ocratic</w>
consi sted</w>
b ang
agricul tural</w>
il er</w>
al um
gen der</w>
commission ed</w>
s oviet</w>
Ban k</w>
cam p
p au
expan sion</w>
b ach
il ly</w>
pea k</w>
a id</w>
u ally</w>
revi ew
be y</w>
em o
fore sts</w>
per forming</w>
O ver
4 4</w>
sh ore</w>
amp ton</w>
6 4</w>
a bu
in terior</w>
ph ase</w>
feat uring</w>
Il lin
si mon</w>
iv al
h tt
L ev
d in</w>
revol ution</w>
gent ina</w>
M os
ef s</w>
olog ist</w>
mi r</w>
sco tland</w>
B illboard</w>
ex pen
Is rael</w>
agricul ture</w>
sev enti
g allery</w>
re signed</w>
J an
star red</w>
ba i</w>
inten ded</w>
in sul
Ber lin</w>
k id
C ru
des cen
as pec
er ic</w>
ev ening</w>
H and
Publi c
H ur
i ra
rail road</w>
k an</w>
w .
pat rick</w>
ke y
inte re
O R
aband oned</w>
lem ents</w>
tre al</w>
champi ons</w>
hea ds</w>
escap e</w>
thed ral</w>
sec onds</w>
c les</w>
y ou
la y</w>
de st
bel ong
T em
S oviet</w>
hap pen
B at
fa il
ch a</w>
I T
ww w.
exten sive</w>
adv is
per form</w>
eli zabeth</w>
ry an</w>
ch t</w>
ic ide</w>
D er
l un
Pro file</w>
w y
st able</w>
on i</w>
T ele
coun t</w>
9 .
T ar
peri o
4 3</w>
veh icles</w>
prov in
t to</w>
el op</w>
north west</w>
Min istry</w>
H op
b illboard</w>
us er</w>
trans lation</w>
O ver</w>
d rin
scri pt</w>
ram s</w>
si e</w>
dra w</w>
sto l</w>
Illin ois</w>
sp ain</w>
Bri an</w>
al o</w>
bron ze</w>
we d
pap ers</w>
jo ins</w>
program ming</w>
P ower</w>
der ived</w>
ac res</w>
H ear
sto res</w>
Sen ate</w>
K ir
cent re</w>
Chi ef</w>
inju red</w>
5 2</w>
pho sp
du l
sti n</w>
ac id</w>
dem ic</w>
5 1</w>
Th ir
Be fore</w>
cour ses</w>
ali on</w>
M au
Par t</w>
au dio</w>
is ms</w>
sym bo
Direc tor</w>
min ute</w>
contro lled</w>
eg y
or an
ima ges</w>
fic ations</w>
classi fication</w>
mis s</w>
op position</w>
all ing</w>
l ing
Li mi
quar ter
ch ell</w>
i er</w>
func tions</w>
A rea</w>
Op en</w>
occu r</w>
ur day</w>
194 4</w>
com pared</w>
hon or
pi eces</w>
195 9</w>
rou gh</w>
M en
ecu lar</w>
un incorporated</w>
y an
ref ers</w>
193 9</w>
ten nis</w>
J am
fac ulty</w>
S tory</w>
p lea
ref used</w>
Hum an</w>
cor ps</w>
appro ach
quar ter</w>
Lor d</w>
Ath le
w alls</w>
f und</w>
F inal</w>
reg istered</w>
Su n</w>
gu it
bi e</w>
dev elop</w>
re fu
Jo e</w>
fi re
ban ds</w>
s ale</w>
f lying</w>
J ean</w>
in n</w>
In dependent</w>
A sh
la tin</w>
is rael</w>
lan ta</w>
it u
bra in</w>
s lightly</w>
en cies</w>
Mid dle</w>
hea ded</w>
5 3</w>
hom es</w>
loo king</w>
mo tion</w>
tra ined</w>
l er
F ree</w>
fin ish</w>
ef ly</w>
n ag
ne uro
J ackson</w>
free dom</w>
jo e</w>
bro ken</w>
seventi es</w>
gu ardian</w>
gra ve</w>
loc ations</w>
offici als</w>
compo ser</w>
ex press</w>
v o</w>
c enti
e ous</w>
gra ph
Pr inc
P ea
St and
f low</w>
trans fer</w>
qui te</w>
k ur
intelli gence</w>
scho ol
mul ti</w>
ai de</w>
ac ted</w>
distribu ted</w>
olog ies</w>
f fic
lo como
reas on</w>
N ic
and ra</w>
htt p</w>
docum ents</w>
Moder n</w>
legisla tive</w>
architec t</w>
d ating</w>
Arch i
flow ers</w>
h en</w>
exis tence</w>
th ri
wat ch</w>
L am
cau ses</w>
E X
spec tive</w>
b ound</w>
f on
F ur
re ll</w>
situ ation</w>
conflic t</w>
ar med</w>
or al</w>
Maj or</w>
s es
en demic</w>
b loc
Bla ck
S how</w>
titu de</w>
su b</w>
sc ape</w>
por tion</w>
S el
men 's</w>
nine ties</w>
rec ru
el em
met res</w>
ho sts</w>
scri ption</w>
scre en
la h</w>
bri ef</w>
d ur
b ag
Statis tical</w>
mis sions</w>
to x
ay sia</w>
V an</w>
N om
L ong</w>
usu al</w>
E s
pro ved</w>
mi x
L e</w>
4 9</w>
mem ber
south east</w>
4 6</w>
ti ma
B y
re pea
fi a</w>
rest ric
R em
def eat</w>
sc oring</w>
di men
fo x</w>
por tion
com bin
in ci
perman ent</w>
ru s</w>
bo y
ris m</w>
re bel
194 6</w>
th an
im prov
in si
E arly</w>
an cy</w>
Eas tern</w>
195 6</w>
p ac
ro of</w>
um es</w>
lev eland</w>
Co ast</w>
Nav al</w>
el ed</w>
An th
H ung
la id</w>
ket ing</w>
passeng er</w>
Pre mi
Elec tion</w>
ph ar
k lin</w>
Don ald</w>
H ous
195 7</w>
195 8</w>
teri a</w>
tor ney</w>
adv oc
pres ence</w>
m rs</w>
er to</w>
identi ty</w>
s tics</w>
bo t</w>
tic ism</w>
cep tion</w>
j ackson</w>
et ro
p o</w>
illu strated</w>
displa y</w>
ne dy</w>
In te
fi ts</w>
li eutenant</w>
sh ape</w>
premi ered</w>
S c
og en
cal cu
I V</w>
communic ation</w>
bud get</w>
necess ary</w>
dic tion</w>
194 8</w>
S her
for d
9 5</w>
sen ten
pre par
B on
m all</w>
Emp ire</w>
E gy
con tained</w>
apol is</w>
ar ab
K in
categ ory</w>
Spec ial</w>
A M
ve ter
9 78</w>
ll ery</w>
dri ver</w>
in dex</w>
h ann
schedu led</w>
pre ci
r ent</w>
lo sing</w>
g ay</w>
th in</w>
G ran
W restling</w>
Fam ily</w>
journ alist</w>
pi ano</w>
t at
re in
coo per
daugh ters</w>
R O
es h
la c
antas y</w>
veh icle</w>
coun ties</w>
uri es</w>
mill er</w>
v est
resul ted</w>
at tribu
d ying</w>
um s</w>
ga tes</w>
str ong
tin o</w>
adv ant
bo ar
B ol
de si
exhibi tion</w>
for ma
An dre
T it
stra ight</w>
bo dies</w>
arch ives</w>
at om
stri an</w>
bi c</w>
Govern or</w>
ex pe
C A</w>
P ro</w>
sa v
weap ons</w>
ste p</w>
stand ards</w>
pow ers</w>
w ich</w>
tar get</w>
a im
Cre ek</w>
k it
supp ly</w>
y o</w>
b at</w>
provin cial</w>
La tin</w>
lan ce</w>
fac ts</w>
par ks</w>
ab les</w>
The atre</w>
cha in</w>
ne eds</w>
con tact</w>
ta i
le 's</w>
retur ning</w>
ex cel</w>
ey es</w>
north east</w>
s man</w>
su sta
sp read</w>
fa shion</w>
B ang
inv a
min d</w>
con test</w>
Mill er</w>
ac cident</w>
tou ri
re ds</w>
Techn ology</w>
hea t</w>
b ay
gun s</w>
u kra
therap y</w>
scen es</w>
K orea</w>
foun ding</w>
constitu ency</w>
s election</w>
ter 's</w>
br ing</w>
T H
ban ks</w>
n ick</w>
R ac
moun tains</w>
divi sions</w>
M ilitary</w>
pic ture</w>
diag no
candi dates</w>
D C</w>
pri ses</w>
dis cip
new ly</w>
Inter view</w>
cre ation</w>
li p
F ame</w>
con taining</w>
li fe
sur ance</w>
me ets</w>
ren ov
Lew is</w>
presi dential</w>
d h
ne i
stra teg
Phi ladelphia</w>
ti ll</w>
op posed</w>
op po
on 's</w>
w er
ran e</w>
vi de
5 4</w>
ter son</w>
t rea
us ers</w>
tis m</w>
U kra
pe op
Mach ine</w>
regu larly</w>
v i</w>
bi bli
O li
stitu tion</w>
195 5</w>
show ed</w>
re tt</w>
thous e</w>
Air port</w>
s ley</w>
A gency</w>
influ enced</w>
z y</w>
P au
M unicip
c oc
C ast
g ang</w>
ne st</w>
en g</w>
V an
ex cell
H ay
k entucky</w>
wa ve</w>
w ill
sen se</w>
On tario</w>
r é
5 6</w>
spe ech</w>
cin ema</w>
form al</w>
t ony</w>
Eli zabeth</w>
re ments</w>
son 's</w>
ev es</w>
el igi
attemp ts</w>
simp ly</w>
ic ed</w>
la dy</w>
gui shed</w>
spo t</w>
six ties</w>
wri te</w>
la ce</w>
bo ats</w>
k 's</w>
jam in</w>
K ri
viol ence</w>
wri ght</w>
be et
ter ing</w>
th ic</w>
194 2</w>
sc ra
physi cs</w>
some thing</w>
cou ver</w>
T an
pain ted</w>
k on</w>
194 7</w>
V illa
a er
tima tely</w>
ci dae</w>
gre y</w>
on tario</w>
po et</w>
Ar thur</w>
z on</w>
heav ily</w>
shap ed</w>
hi red</w>
iss ance</w>
s ession</w>
junc tion</w>
d é
done sia</w>
ir y</w>
om an</w>
chur ches</w>
brea k
power ful</w>
S unday</w>
Vi deo</w>
195 2</w>
de plo
cat alog</w>
m ingham</w>
Comm unic
at us</w>
c ann
O k
P age</w>
w ant</w>
p ine</w>
ex amples</w>
fi shing</w>
whe ther</w>
del iv
wal k</w>
cha ir</w>
Cent ury</w>
pro fit</w>
reas ons</w>
sub si
foc used</w>
chem istry</w>
qu est</w>
con tain</w>
lew is</w>
ear th
DV D</w>
sa telli
mis sed</w>
authori ties</w>
oo se</w>
ex isting</w>
ber ta</w>
com mo
main tained</w>
co al</w>
k ol
w ick</w>
po d</w>
star ring</w>
Gu ardian</w>
back ground</w>
I A</w>
Ser vic
entu res</w>
194 1</w>
re search
k orea</w>
w ounded</w>
ceremon y</w>
M icro
ac qu
portion ment</w>
represen tative</w>
O ut
ili an</w>
fe ed</w>
eng ines</w>
in struc
195 4</w>
domes tic</w>
Ho sp
6 6</w>
am aj
Se a</w>
gr ounds</w>
ra eli</w>
Enter tainment</w>
i um</w>
uti ful</w>
G oogle</w>
wai i</w>
Un der</w>
A ma
H ou
us cri
En viron
inst alled</w>
Bo b</w>
am ar
ig n
N .</w>
h ills</w>
5 8</w>
Mel bourne</w>
gra phic</w>
co ordin
o b</w>
ten nes
por tuguese</w>
impro ved</w>
M S</w>
val u
resi stance</w>
Li ke</w>
F our</w>
ch in
l ington</w>
publi shers</w>
195 3</w>
po t</w>
sk in</w>
de puty</w>
Ear th</w>
7 2</w>
Por tuguese</w>
to ward</w>
jo ining</w>
Dav is</w>
ra ti
chap el</w>
Leg isla
kill ing</w>
re z</w>
194 9</w>
S T
w ag
p lu
determin ed</w>
S pe
ro l</w>
respec tively</w>
terri torial</w>
da y
Des pite</w>
collec ted</w>
ar thur</w>
resi dence</w>
t ons</w>
E N
ran ts</w>
Li ve</w>
me ter</w>
g oogle</w>
am u
C ir
9 9</w>
ne gative</w>
mo sp
co ast
ed a</w>
Manag ement</w>
Town ship</w>
sha red</w>
contribu ted</w>
bas s
op hi
onom y</w>
ed ings</w>
sco ttish</w>
Limi ted</w>
thous ands</w>
ab ilities</w>
Fran cis</w>
Pak istan</w>
se u
k or
b ai
t ap
5 7</w>
car ds</w>
tra il</w>
e ge</w>
i k</w>
fo ssi
b ic
Sco ttish</w>
re stored</w>
P sy
down town</w>
R oo
ta ted</w>
C ross</w>
H om
g ent</w>
busin esses</w>
tu be</w>
con vic
re present</w>
big gest</w>
con dition</w>
sec tions</w>
L au
kel ey</w>
o g</w>
he ard</w>
col d</w>
sing ing</w>
enem y</w>
A sian</w>
n ate</w>
re publican</w>
vo ted</w>
8 8</w>
enti rely</w>
san ta</w>
go w</w>
13 85</w>
8 6</w>
ric al</w>
fran cis</w>
in nov
audi ence</w>
en coun
fu el</w>
Sing les</w>
ri f
her self</w>
citiz ens</w>
sp er
eth nic</w>
off en
Ge orgia</w>
Cul ture</w>
7 1</w>
de z</w>
in ner</w>
C z
ru m
i us</w>
mo tor</w>
re ver
rec re
Mov ie</w>
6 3</w>
be t</w>
D re
sub stan
ent rance</w>
Mas sachusetts</w>
O l
sh ell</w>
al em</w>
Secre tary</w>
de an</w>
r ing
z o</w>
tennes see</w>
ma ker</w>
dam aged</w>
te ch</w>
ma x</w>
k ong</w>
i ed</w>
investig ation</w>
pain tings</w>
r hy
Mar yland</w>
al leg
P hysi
Pr ince</w>
S .
enti tled</w>
M anu
G od</w>
10 00</w>
mel bourne</w>
T elev
institu tion</w>
ur o</w>
d ent
ques tions</w>
techni ques</w>
is ation</w>
6 2</w>
Ch am
S ab
Albu m</w>
lo yd</w>
al co
Feder ation</w>
6 1</w>
bo b</w>
fail ure</w>
da vis</w>
Mu si
7 7</w>
sha w</w>
b is
sa ve</w>
g n
avi ation</w>
col ors</w>
e ties</w>
b ak
teach ers</w>
f res
dro me</w>
ac re</w>
8 4</w>
produc ing</w>
mol lu
O reg
Bor n</w>
le tin</w>
on ist</w>
sol u
gre es</w>
repres ents</w>
char ges</w>
ani on</w>
9 2</w>
mov ies</w>
t une</w>
re ality</w>
8 1</w>
bir th
For t</w>
bas s</w>
Hol lywood</w>
6 7</w>
go ti
fil led</w>
do x</w>
7 6</w>
lo se</w>
develop ing</w>
Mor ning</w>
9 3</w>
Rou te</w>
mar ia</w>
Arch ive</w>
Ph il
5 9</w>
pal ace</w>
passeng ers</w>
fic ally</w>
Al an</w>
nation ally</w>
tu rer</w>
Re si
Regi on</w>
mag ne
B en</w>
un es</w>
athle tic</w>
ha bi
ex pression</w>
sol ution</w>
mon it
Public ations</w>
com position</w>
ow s</w>
bea u
tele graph</w>
am ate
ir ing</w>
affec ted</w>
g li
p lus</w>
lic ations</w>
con vention</w>
c able</w>
vis ual</w>
cent uries</w>
ne th</w>
no thing</w>
N ar
do ing</w>
Poli ce</w>
inf antry</w>
ju di
Administ ration</w>
w as
d man</w>
ca tes</w>
T enn
gu ar
On ly</w>
te gy</w>
cli m
P A</w>
mon as
m 's</w>
musi cian</w>
Am eric
ex t
af t</w>
ok lyn</w>
ri vers</w>
os ter</w>
ell i</w>
ini on</w>
min ing</w>
I S</w>
surg ery</w>
M A</w>
z h
H ong</w>
Servic es</w>
employe es</w>
inter nal</w>
sk ills</w>
9 1</w>
b rick</w>
ad am</w>
ann iversary</w>
premi er</w>
coun c
8 3</w>
A L
O N</w>
il and</w>
par liamentary</w>
6 8</w>
in cident</w>
medi eval</w>
tt i</w>
hon ors</w>
represen tatives</w>
Mar ia</w>
ro y</w>
cro s
ci ted</w>
g au
institu tions</w>
popu lar
ul es</w>
k orean</w>
ef fort</w>
Su per</w>
g one</w>
i b
br un
gra phy</w>
195 1</w>
f oli
di ocese</w>
be an</w>
gi um</w>
pak istan</w>
amp shire</w>
di son</w>
ac qui
ari st</w>
ques tion</w>
eng aged</w>
en sis</w>
ser ious</w>
Bra zil</w>
Nat ural</w>
K orean</w>
wh it
south west</w>
ex er
S la
easi ly</w>
hol lywood</w>
pe t</w>
announ ces</w>
fu sion</w>
fel t</w>
mo on</w>
us alem</w>
t ren
at ures</w>
G old</w>
u g
Sev eral</w>
constitu tion</w>
u k</w>
t ty</w>
es '</w>
E dition</w>
liber al</w>
Fo x</w>
repor ter</w>
in her
shoo ting</w>
respon si
bri efly</w>
A C</w>
debu ted</w>
A ge</w>
col orado</w>
k s
hu man
earli est</w>
t ry
engine er</w>
tann ica</w>
E ric</w>
e sts</w>
resul ting</w>
oc ean</w>
at lantic</w>
Indu stry</w>
N ot</w>
h eight</w>
exten sion</w>
M .
stu dios</w>
Min nesota</w>
mat ter</w>
her o</w>
restaur ant</w>
char ged</w>
Al len</w>
ro me</w>
mo du
por ter</w>
S A</w>
r one</w>
in ary</w>
P in
am ing</w>
Al l
el der</w>
subsequ ent</w>
Jus tice</w>
stri ke</w>
Sci ences</w>
T ony</w>
get ting</w>
set ting</w>
Sp ace</w>
s tic
z y
19 00</w>
m ely</w>
tri p</w>
N ich
co w</w>
mov es</w>
am in
S ul
tri ple</w>
Or der</w>
ork shire</w>
Fi eld</w>
Pat rick</w>
emplo yment</w>
a po
Y ears</w>
194 3</w>
ev alu
gu lar</w>
ur i</w>
O ut</w>
7 4</w>
fund s</w>
h ec
Com pu
recep tor</w>
sound track</w>
compe te</w>
f at
desig ns</w>
repres enting</w>
connec tion</w>
Mon t
F lor
rea r</w>
s gow</w>
r ho
Loc al</w>
F M</w>
oran ge</w>
ra d</w>
8 9</w>
cre ating</w>
prote ins</w>
bi d</w>
attemp ted</w>
fla t</w>
promo tion</w>
particip ate</w>
str ength</w>
gro wn</w>
S em
rou tes</w>
chri sti
cri sis</w>
193 6</w>
relea ses</w>
cen ters</w>
m p</w>
ni ch
dipl om
pa th</w>
mathema tics</w>
cas ter</w>
8 7</w>
pa y
zi g</w>
cri tici
te ll</w>
o o</w>
9 4</w>
blo g</w>
sig nal</w>
h ad
l on</w>
w ine</w>
mi x</w>
elem entary</w>
M I
st ab
gene tic</w>
co sts</w>
har mon
la desh</w>
Conserv ation</w>
bra zil</w>
D an
ra tions</w>
le tt</w>
b all
Telev ision</w>
ra tings</w>
K ong</w>
D P</w>
9 8</w>
enni fer</w>
fi red</w>
b one</w>
mi li
ho li
C ou
eni x</w>
re pu
Dem ocratic</w>
figh ter</w>
S un
oc racy</w>
D S</w>
re form</w>
bo w</w>
s é</w>
D .
nor m
ho u</w>
C op
a wa
di ary</w>
g om
diver sity</w>
n ev
re al
shi p
lou d</w>
C amp
clin ical</w>
ga stro
pu p
pre hen
se es</w>
extre mely</w>
wa ters</w>
n oc
8 2</w>
p les</w>
t age</w>
We ek
A dam</w>
p en</w>
ann y</w>
gro w</w>
Re publican</w>
j en
j ack
il ey</w>
A vi
oper ate</w>
N ov
a th</w>
am an</w>
cro wn</w>
bor ne</w>
recogni tion</w>
g ins</w>
sugg ested</w>
W ea
sou ght</w>
N ow</w>
cho se</w>
tre ated</w>
Sea son</w>
def ence</w>
h il
9 6</w>
rou gh
te sts</w>
spea king</w>
v as
s low</w>
au g
in sec
6 9</w>
li sts</w>
o ther
ch o</w>
A us
j ay</w>
bu ff
O N
c ling</w>
or chestra</w>
car ry</w>
z on
3 00</w>
k im</w>
7 3</w>
fa x</w>
wal ter</w>
ste ri
mis sing</w>
clo sely</w>
pe ar
lin ked</w>
hol ding</w>
9 7</w>
k om
Wal ter</w>
man uscri
l u</w>
emp ha
sh u
adv ance</w>
visi ble</w>
col lap
Chri sti
har d
la tor</w>
k h</w>
al ab
jac ent</w>
de grees</w>
flow s</w>
den cy</w>
ham mad</w>
pan ts</w>
atten d</w>
ow ski</w>
z ilian</w>
I UC
i owa</w>
em peror</w>
A k
ow ners</w>
inv ent
C in
B ou
indic ate</w>
te sting</w>
ob jects</w>
Medi cal</w>
pass ing</w>
fil med</w>
C H
Oreg on</w>
Broad casting</w>
h oo
Que ensland</w>
la sted</w>
da vi
Un der
conserv ative</w>
pic tures</w>
IUC N</w>
sh ad
19 18</w>
Bri dge</w>
suppor ting</w>
ob ile</w>
es ch
sta yed</w>
M e</w>
San ta</w>
b ap
ma ps</w>
w au
t son</w>
p ad
sequ ences</w>
sp an</w>
7 9</w>
fr ame</w>
w ing
tur kish</w>
is er</w>
Dig ital</w>
Scho ols</w>
ad mitted</w>
distinc t</w>
op pon
per sons</w>
invest ment</w>
N ight</w>
et ary</w>
st ages</w>
ni k</w>
Jo hn
Mem orial</w>
po wered</w>
ol o
inf ra
f ram
Tur kish</w>
ho p</w>
ha ir</w>
o la
t all</w>
member ship</w>
elec toral</w>
av a</w>
L yn
res ses</w>
b by</w>
Indi ana</w>
r ong</w>
run ner</w>
193 8</w>
credi ts</w>
w ants</w>
y on</w>
ne goti
ar do</w>
ul timately</w>
metro politan</w>
E S</w>
A A</w>
CE L</w>
tal ks</w>
nic kn
un able</w>
F ra
celeb rated</w>
li m
D eb
ing en</w>
h l</w>
fa ith</w>
At lantic</w>
fla g</w>
under ground</w>
cri minal</w>
i tems</w>
si zed</w>
prog ress</w>
T ai
ll er</w>
colon ial</w>
su icide</w>
i th
re ally</w>
ter r
Be tween</w>
Is lands</w>
fac tors</w>
Ar ti
fru it</w>
Hosp ital</w>
ty pical</w>
ch el
A S</w>
deb ate</w>
song writer</w>
gol f</w>
K al
aven ue</w>
al ties</w>
ko v</w>
EX CEL</w>
V e
p ha
h ome
a ys</w>
stop ped</w>
e an
Tele graph</w>
Anth ony</w>
dec ades</w>
th am</w>
sta tement</w>
hol m</w>
glo be</w>
v ali
n ad
cra sh</w>
amate ur</w>
the us</w>
Archi tec
resp ond
g res
ide as</w>
separ ated</w>
Or g
invi ted</w>
a head</w>
ri dge</w>
inc t</w>
P S</w>
amaj or</w>
tre as
Tran sportation</w>
Af fairs</w>
ter ns</w>
St one</w>
en to</w>
ow ell</w>
c ous
c ock</w>
val ry</w>
du ty</w>
ty 's</w>
su spec
ander son</w>
ter minal</w>
D an</w>
s ville</w>
0 0
di al
descri ption</w>
part nership</w>
f an
c at</w>
b lan
lo tte</w>
ban e</w>
econom ics</w>
li br
ba by</w>
ac cu
f en
and re
ri de</w>
id en</w>
for tun
suppor ts</w>
subur b</w>
Nat ure</w>
mar k
pol is</w>
st al
equ ival
Wis consin</w>
cor ner</w>
E ll
pre dic
si t</w>
she et</w>
e ter</w>
c ine</w>
ban k
ce tera</w>
E d</w>
leg es</w>
se as</w>
Har vard</w>
bal timore</w>
hop e</w>
g lu
A M</w>
san c
rev ised</w>
s ri</w>
ar ena</w>
dy nas
Wa ter</w>
ad jacent</w>
max imum</w>
ine es</w>
view ed</w>
regar ded</w>
anth ony</w>
cab inet</w>
Chan nel</w>
disc overy</w>
ran king</w>
gu in</w>
G reg
Chri stopher</w>
du ke</w>
su ffi
ol ine</w>
lipp ine</w>
hand book</w>
mo de</w>
in ches</w>
pre vent</w>
har t</w>
L A</w>
Bi shop</w>
s am</w>
H oward</w>
tou ch
Pla ce</w>
provi ding</w>
tho dox</w>
L et
ne tworks</w>
Fore st</w>
m ic
b oun
are n</w>
W ill</w>
man chester</w>
medi um</w>
tab les</w>
1 2
po t
y i
P ur
tri bune</w>
universi ties</w>
flo o
res sed</w>
an c
K ur
mat t</w>
gh ani
eigh ts</w>
chri stopher</w>
ro s
J or
ex tra</w>
M P</w>
el ine</w>
open s</w>
et cetera</w>
child hood</w>
i on</w>
dre am</w>
dem and</w>
que ensland</w>
st o</w>
alli ance</w>
comm on
S ong</w>
ati an</w>
co s</w>
sur ve
We b</w>
har vard</w>
alco ho
techni que</w>
re stor
cau ght</w>
Pro gram</w>
si tion</w>
se ems</w>
H aw
beli eve</w>
add ress</w>
han ded</w>
Pro fessor</w>
hy po
anim e</w>
Mis s</w>
Man chester</w>
ari zona</w>
H ot</w>
A v
increas ing</w>
er ra</w>
im my</w>
classi fied</w>
con secu
ow ns</w>
K evin</w>
up dated</w>
speci fically</w>
ber ry</w>
d ford</w>
rece iving</w>
ig a</w>
w on
amo th</w>
um b
centi meters</w>
su r</w>
ra tor</w>
plo t</w>
Cor ps</w>
w en</w>
ta wa</w>
y a
ani ty</w>
visi tors</w>
ab or
de ut
cu lar</w>
ar ily</w>
jo bs</w>
way back</w>
ser i
bi ographical</w>
d op
cre te</w>
ac commo
so il</w>
on ard</w>
me theus</w>
ley ball</w>
We ek</w>
iv a</w>
f ers</w>
ad ults</w>
tim s</w>
ve ge
la y
tab ly</w>
spea k</w>
k evin</w>
a tives</w>
mag ic</w>
elec tro
por ted</w>
adap ted</w>
sev ere</w>
ac tors</w>
Way back</w>
H av
end or
dru m
jour ney</w>
bea utiful</w>
mar t</w>
im perial</w>
nov els</w>
beet le</w>
h ang
Cla ssi
fi cial</w>
happ y</w>
low s</w>
t man</w>
est ine</w>
Con tro
po sal</w>
S ri</w>
ine a</w>
di ego</w>
og y</w>
newspap ers</w>
de p
us s</w>
E f
li er</w>
fer son</w>
deliv ered</w>
B each</w>
ha z
import ance</w>
19 14</w>
si mil
ess ment</w>
flow er</w>
ru ss
produc es</w>
Lan gu
ch ant</w>
Mat t</w>
foun d
Tri bune</w>
com pi
anth rop
occa sionally</w>
o dy</w>
h oward</w>
Ch em
193 7</w>
manufac turing</w>
res sional</w>
D own
Con nec
protec ted</w>
S port</w>
colum n</w>
m in</w>
Org ani
de tro
C lin
con fi
sy ste
No te</w>
en co
om et
ro ots</w>
produc tions</w>
sco res</w>
An ton
ghani stan</w>
F al
al thy</w>
R yan</w>
plan et</w>
tion ing</w>
P y
reve als</w>
tri be</w>
bot tom</w>
am bi
dev ices</w>
Ma il</w>
k un
R ome</w>
credi t</w>
U R
ra t</w>
aci on</w>
An ne</w>
te en
om ing</w>
19 19</w>
e i</w>
ti sti
bri gade</w>
cour ts</w>
b son</w>
S in
Moun tain</w>
S E
lear ned</w>
sh ir
be ta</w>
ann ually</w>
Cla ss</w>
edi tions</w>
mar kets</w>
am ond</w>
satelli te</w>
Y our</w>
after wards</w>
spiri t</w>
co tt</w>
D ur
' re</w>
Tru st</w>
Re presen
stor age</w>
dou b
R .
et c</w>
wit z</w>
K ra
mis souri</w>
I ra
h r
keep er</w>
pri est</w>
h ispanic</w>
Pri ze</w>
ok lahoma</w>
person nel</w>
swim ming</w>
ob jec
do ors</w>
193 5</w>
requi res</w>
pa irs</w>
competi tions</w>
f a</w>
insul a</w>
tor ian</w>
th ur
eg as</w>
e zu
controver si
S af
arran g
d ged</w>
le ans</w>
voc als</w>
Th en</w>
Ru gby</w>
J onathan</w>
pain ter</w>
Met ro
sum mary</w>
ru led</w>
ll s</w>
the tic</w>
ob served</w>
protec t</w>
schedu le</w>
su preme</w>
cul tiv
w ear</w>
ex pres
eas y</w>
nat ur
so red</w>
tu gal</w>
Gor don</w>
Sta ff</w>
ro lled</w>
ven s</w>
lin gu
st rac
Bas eball</w>
brea king</w>
G un
esti mates</w>
direc tory</w>
Publi shers</w>
oppo site</w>
stor s</w>
war s</w>
hel ps</w>
gh o
An derson</w>
val ues</w>
D o</w>
en te</w>
coast al</w>
dev ice</w>
on ing</w>
m und</w>
bu sh</w>
W ood
mill an</w>
kn ess</w>
stre ets</w>
um a</w>
N ep
me ta
honor ary</w>
S wis
Har ry</w>
nin g
H ispanic</w>
re tained</w>
appe al</w>
u de</w>
F ro
ma th</w>
Ch ampi
M ount</w>
ex pressed</w>
j on</w>
t ler</w>
licen sed</w>
F igh
can al</w>
str o</w>
orig ins</w>
sug ge
illu stra
com ics</w>
sal t</w>
g ood
C .
bass ador</w>
o tt</w>
requ ire</w>
ste ps</w>
el or</w>
ri al</w>
ig er</w>
consecu tive</w>
li van</w>
A P
st ock
st own</w>
J ane</w>
sh ak
serv er</w>
under standing</w>
reci pi
Gol den</w>
hur ricane</w>
chron icle</w>
c us
ro ger</w>
c ise</w>
roll ing</w>
hy per
Mas ter</w>
acc used</w>
m ills</w>
re di
legen d</w>
gaz etteer</w>
ra ge</w>
inva sion</w>
thin k</w>
gar dens</w>
re action</w>
promo te</w>
affili ated</w>
rea ching</w>
tas k</w>
spo ken</w>
Clar k</w>
fini shing</w>
tan k</w>
L es
collec tions</w>
illi ps</w>
p ron
detro it</w>
prin ting</w>
ti li
and o</w>
ter ran
Col on
har ry</w>
circu it</w>
at torney</w>
gor don</w>
descri bes</w>
as s</w>
vi an</w>
ac u
F air
Pla y
eb ook</w>
st ran
schol ar
fre sh
cap ture</w>
hund reds</w>
th m</w>
regar ding</w>
so lar</w>
h u</w>
stra tegy</w>
differ ences</w>
v ul
ou gh
I an</w>
b lin
recor dings</w>
Res ources</w>
ste am</w>
tre at</w>
t ney</w>
E ver
pat tern</w>
impro ve</w>
O ur</w>
n ak
p an</w>
ic op
Pol and</w>
p ick</w>
g ation</w>
Arch ives</w>
ang a</w>
de al
ven ted</w>
Dea th</w>
T im</w>
par a</w>
gi o</w>
campa ig
og an</w>
ten s</w>
pol e</w>
H ockey</w>
Ma in</w>
proc essing</w>
temper ature</w>
atta ched</w>
ca sts</w>
y es</w>
signi fi
but ter
au t
gh es</w>
gu l
ren ew
direc tors</w>
S o</w>
musi cians</w>
ll o</w>
law yer</w>
uni ties</w>
fif ties</w>
pur su
La st</w>
ch ann
appro pri
Res er
A I
ound ary</w>
inc in
tou rism</w>
every thing</w>
p al</w>
D NA</w>
off s</w>
le g</w>
car bon</w>
desig ner</w>
V ari
S av
am oun
Por t</w>
elim inated</w>
k el</w>
accomp ani
im al</w>
ear l</w>
mar keting</w>
fec ture</w>
fa v
guit arist</w>
Villa ge</w>
hol y</w>
con cep
f ab
ear ning</w>
po ems</w>
er i</w>
m ons</w>
R on
ol ds</w>
e rec
E P</w>
z al
el li
dri ving</w>
sw iss</w>
min i
ec k</w>
distin guished</w>
s m</w>
equi pped</w>
mor ph
S and
Phi lip</w>
dec lined</w>
dec ade</w>
combin ation</w>
K an
ar on</w>
v y</w>
re place</w>
P un
E th
te au</w>
ter sburg</w>
re con
ca p</w>
Da ve</w>
form ally</w>
integra ted</w>
rin ity</w>
univer sal</w>
har a</w>
res olution</w>
In troduc
t u</w>
measu res</w>
ge red</w>
sta te
ou ts</w>
eu r</w>
st ad
C emetery</w>
i '
gra des</w>
re jected</w>
Gaz etteer</w>
W y
mi th
Rus sell</w>
sa r</w>
ma ke
ant ine</w>
Comple te</w>
cover age</w>
bro ok</w>
chang ing</w>
arran ged</w>
n old</w>
O S</w>
193 3</w>
er on</w>
sol e</w>
Rog er</w>
exp lor
pea ked</w>
I r
iger ia</w>
surr ounded</w>
emer gency</w>
da ve</w>
v ae</w>
R ay
su ff
Am ong</w>
mi ts</w>
woo den</w>
ch ess</w>
Ne therlands</w>
y ce</w>
pur poses</w>
id en
dro p</w>
Dou glas</w>
g ym
at mosp
civi li
Swis s</w>
colon el</w>
dis c</w>
s ung</w>
un like</w>
f eld</w>
di st</w>
bo ards</w>
induc ted</w>
avo id</w>
sem i
c ally</w>
aspec ts</w>
ck land</w>
athle tics</w>
the ore
kel ly</w>
D ol
St ru
V .</w>
re v</w>
LL C</w>
clar k</w>
ne therlands</w>
19 12</w>
ca thedral</w>
phar mac
ru b
re built</w>
reli ef</w>
ang le</w>
19 29</w>
s tery</w>
pre pared</w>
mon thly</w>
am on
cir cum
m pi
ri o</w>
s ad
K on
sk y
es ter
ij ing</w>
B rea
pol and</w>
car to
dou glas</w>
mol ecular</w>
M ir
fi xed</w>
sig ning</w>
cham ber</w>
w ell
inte rested</w>
r h
bu dd
exclu sive</w>
vent ure</w>
re m
ic ks</w>
er ies</w>
elev ation</w>
19 17</w>
la tino</w>
demon stra
j onathan</w>
as sumed</w>
as ks</w>
lin er</w>
gen ous</w>
B run
psych ology</w>
accompani ed</w>
Pat ri
R ap
ci on</w>
c ow
municip alities</w>
ox y
Buil ding</w>
Cap tain</w>
g l
wor n</w>
la t
phi lip</w>
L ady</w>
favor ite</w>
gro ve</w>
T ak
Poli tical</w>
P C</w>
vi c</w>
gra y</w>
x es</w>
gra ss</w>
tur n
ac tual</w>
v ary</w>
N az
A h
Ari zona</w>
man ual</w>
connec ticut</w>
id el
hu ge</w>
un t</w>
19 10</w>
s bane</w>
t ari
war ri
I M
tw in</w>
russ ell</w>
win dow</w>
bow l</w>
F ron
C ab
Mis si
Lat ino</w>
al bert</w>
A L</w>
sa ying</w>
D y
D ie</w>
ob ject</w>
ent on</w>
ber ger</w>
f i</w>
dem ocra
ni ty</w>
batt alion</w>
sc ar
la test</w>
t ro</w>
hosp it
rescu e</w>
ster dam</w>
Swe den</w>
G ary</w>
st ation
experi enced</w>
ad d</w>
L ight</w>
Bru ce</w>
kin son</w>
to ols</w>
F el
eg a</w>
i x</w>
sha res</w>
dor f</w>
nat i</w>
sur ren
instru ments</w>
. org</w>
ch ance</w>
gi ant</w>
ar di
fici ency</w>
S wit
cla ss
pur chase</w>
me an</w>
v ine</w>
selec t</w>
proc esses</w>
bin ding</w>
A BC</w>
vic tims</w>
de ep
tru th</w>
li qu
am az
it z
stri al</w>
me ant</w>
In f
vide os</w>
as kat
19 22</w>
ab led</w>
hor ses</w>
K ansas</w>
Gen er
boo k
lan ding</w>
ari b
ro ws</w>
corpor ate</w>
se attle</w>
k as
a to</w>
tur key</w>
busin ess
sol ved</w>
th en
g oods</w>
Pla yers</w>
N ations</w>
ro s</w>
Engine ering</w>
Al li
popular ity</w>
De sign</w>
arti llery</w>
bru ce</w>
te am
de posi
em or
19 31</w>
sen d</w>
d ang
B om
la p</w>
193 4</w>
me l</w>
lu c
gradu ating</w>
ford shire</w>
ci o</w>
week end</w>
organ ic</w>
critici zed</w>
J unior</w>
part ners</w>
A venue</w>
L is
ne u
equival ent</w>
alle l</w>
si sters</w>
differ ence</w>
greg ation</w>
ab b
fin ance</w>
ip zig</w>
W all</w>
en dar</w>
bro ad</w>
F ire</w>
st ress</w>
vol umes</w>
sen si
r ine</w>
Th reatened</w>
R at
L E
an ch
win d
del iver
con ten
p seu
im prison
tou red</w>
I ma
K im</w>
k no
hou ston</w>
experim ental</w>
bel ongs</w>
mar tin
dial ec
t rying</w>
D on</w>
adver ti
el sen</w>
re duce</w>
enz y
J a
Qu ar
u se
law rence</w>
con sci
ess els</w>
p 's</w>
dem olished</w>
Cast le</w>
saf e</w>
sou l</w>
B os
intere sts</w>
kil omet
R ock
j u</w>
Pla yer</w>
f lan
la tes</w>
gre at
wau kee</w>
lin ks</w>
in surance</w>
Da vi
app ed</w>
lo gy</w>
al b
la m</w>
can tly</w>
y u</w>
Ex ecu
senten ced</w>
Ann oun
u k
Stu dy</w>
ex trac
B et
pri sing</w>
S am</w>
Bo x</w>
characteri stics</w>
na i</w>
preser ved</w>
modi fied</w>
Al bert</w>
bran ches</w>
p ig
M ales</w>
de pression</w>
A N</w>
19 28</w>
industri es</w>
Mo ore</w>
establi shment</w>
ca v
ri d</w>
Win ter</w>
ani e</w>
com mitted</w>
hap s</w>
ber ra</w>
alab ama</w>
Jef f</w>
ow nership</w>
ri ty</w>
compi lation</w>
incin nati</w>
193 2</w>
G rea
ol o</w>
re k</w>
a de
Ham ilton</w>
ri t</w>
C C</w>
o ch
expe dition</w>
s worth</w>
jef f</w>
j un
illi am
loo ks</w>
en ters</w>
unc le</w>
wal ker</w>
prison ers</w>
e o</w>
em ed</w>
lar vae</w>
T el
fiel der</w>
s ation</w>
hol e</w>
opport unity</w>
lou isiana</w>
K il
ear ing</w>
J en
aly sis</w>
ad el
mo sco
publi sher</w>
pla in</w>
person ality</w>
controver sy</w>
ent ure</w>
sch eme</w>
Chil dren</w>
f antasy</w>
in spec
cross ing</w>
gro ws</w>
si ca</w>
re ign</w>
ay an</w>
Re d
R id
signifi cantly</w>
ag er</w>
Fore ign</w>
B ell</w>
ch arity</w>
be e</w>
Mos cow</w>
k han</w>
te or
conte sted</w>
ow e</w>
soli d</w>
architec tural</w>
photogra phy</w>
compon ents</w>
k az
s day</w>
har bor</w>
Du ke</w>
moun ted</w>
Ale x</w>
premi ere</w>
en ne</w>
dynas ty</w>
some what</w>
swe den</w>
ta g</w>
Tur key</w>
aci onal</w>
f lies</w>
s ers</w>
Ex press</w>
Chron icle</w>
ogra phi
eng al</w>
world 's</w>
19 11</w>
alo gue</w>
ad i</w>
sub jects</w>
teri es</w>
w ic
to t
Terri torial</w>
Phi lippines</w>
B ab
cir cle</w>
st ones</w>
e on</w>
4 00</w>
k ie</w>
cam era</w>
19 27</w>
h on</w>
al is</w>
s ang</w>
volun te
kill s</w>
an o
te a</w>
V ar
ro b
auth ors</w>
possi bly</w>
la ter
Rev olution</w>
O ffic
su m</w>
inju ries</w>
d ogs</w>
vir us</w>
G ram
Communic ations</w>
al ex</w>
Nor way</w>
acc es
T ou
stru ck</w>
mosco w</w>
terran ean</w>
fi es</w>
coun ter
ordin ary</w>
vol leyball</w>
ab sor
Bu dd
execu ted</w>
portra yed</w>
k ent</w>
li f
mi ami</w>
h r</w>
bac ks</w>
ma ssi
Mat thew</w>
z en
Ma x</w>
N S
per fect</w>
Regi onal</w>
r ounds</w>
m cc
bi o</w>
Sar ah</w>
Po int</w>
vo iced</w>
fif a</w>
pla te</w>
R ights</w>
b ear</w>
lea gues</w>
phi lippines</w>
t re</w>
Tran sport</w>
bri ght</w>
port land</w>
su d
accoun ts</w>
Th or
rece ives</w>
de ter
es day</w>
defen sive</w>
lo sses</w>
gen es</w>
g ly
happen ed</w>
S au
is lation</w>
Fi ve</w>
Re ference</w>
Mis souri</w>
cap e</w>
au stin</w>
ab ad</w>
at las</w>
wil dlife</w>
ther 's</w>
ham ilton</w>
whe el</w>
Ch o
occup ation</w>
S earch</w>
Com mon
men ian</w>
Sing apore</w>
19 21</w>
ed in
tiv als</w>
friend ly</w>
bu ck
blu es</w>
g ur
ap s</w>
concer ts</w>
Har ris</w>
crea tive</w>
hol ders</w>
o ks</w>
K at
Char ts</w>
sty les</w>
ing ing</w>
t ine</w>
form ula</w>
b oundary</w>
youn gest</w>
t ford</w>
relation ships</w>
D ri
tex ts</w>
B ay
wed ding</w>
J our
nan cy</w>
t ack
des cent</w>
pit tsburgh</w>
z u</w>
cy cli
dru gs</w>
anu s</w>
bu y</w>
ul u</w>
contribu tions</w>
cz ech</w>
bu ses</w>
med als</w>
mo ore</w>
om bia</w>
a in
T ER
tal ent</w>
la kes</w>
arib bean</w>
mat thew</w>
fra g
c eased</w>
En d</w>
FI FA</w>
ll ing</w>
arti stic</w>
advant age</w>
or ph
5 000</w>
Cz ech</w>
bi ological</w>
For d</w>
S lo
Glo be</w>
ali zes</w>
labor atory</w>
rough ly</w>
In stitu
dra fted</w>
defini tion</w>
Kel ly</w>
J ason</w>
j ew
appoin tment</w>
S ongs</w>
land scape</w>
sar ah</w>
si m
Plan t</w>
un ve
B att
c ov
Albu ms</w>
B ack</w>
bo ss</w>
ann ing</w>
cla y</w>
An ti
s tim
equ al</w>
docum ent</w>
amp a</w>
h ns</w>
et ings</w>
n el
communi st</w>
ch ew
ali tion</w>
there after</w>
ag ents</w>
du o</w>
nu cle
lear n</w>
tur ning</w>
Law rence</w>
iv al</w>
s low
collabor ation</w>
monum ent</w>
Sam uel</w>
go sla
res ol
am y</w>
prehen sive</w>
D E
i red</w>
oc ks</w>
on ym
j ason</w>
ch ers</w>
19 25</w>
190 8</w>
Com man
G ul
a stro
m ck
w en
su i
met ro</w>
a is</w>
ever th
g as
Th us</w>
everth eless</w>
in der</w>
T our
vol can
Week ly</w>
bom b</w>
Hand book</w>
st rom</w>
d inal</w>
Sy m
il es</w>
enni al</w>
Wal ker</w>
mor t
P et
cel ona</w>
athle tes</w>
tra ding</w>
es te
commer ci
requi rements</w>
sam uel</w>
adver tis
19 26</w>
repla cement</w>
con crete</w>
ol i</w>
regu lation</w>
Hea d</w>
ar k</w>
ak h
Wor ks</w>
O t
F le
Bro w
har ris</w>
19 24</w>
pra ised</w>
ne ut
controversi al</w>
pho to</w>
Bal timore</w>
in k</w>
tt oman</w>
ff in</w>
r ington</w>
all a</w>
den ied</w>
A P</w>
lea f</w>
m exican</w>
p tian</w>
contra st</w>
K entucky</w>
ex tra
in y</w>
K ei
G ood</w>
A y
s ke</w>
ov o</w>
Y o
nor way</w>
A del
du ties</w>
d ine</w>
Pro gram
y ale</w>
g i</w>
D etro
dri ven</w>
E din
ste l
qu ake</w>
Th ompson</w>
sh an</w>
gir l
S ho
eng er</w>
en cyclopaedia</w>
Di ego</w>
M exican</w>
ph ony</w>
K am
ti ed</w>
w rest
stan ces</w>
ra cial</w>
gol d
g ru
make up</w>
Wa ter
sequ ently</w>
s now</w>
qu o
For mer</w>
I N</w>
N E
wi g</w>
gu y</w>
N ick</w>
lon gest</w>
an ne
mas ters</w>
nar row</w>
ph er
m é
sa tis
d anish</w>
offen sive</w>
ec k
p in</w>
practic es</w>
Thir d</w>
syn drome</w>
sing apore</w>
ant oni
ch lor
ess ential</w>
Detro it</w>
E vol
Re al</w>
h ill
cous in</w>
exis ted</w>
stro ke</w>
15 0</w>
responsi bility</w>
R ab
S ite</w>
pe tro
v ement</w>
n au
estab lish</w>
ren 's</w>
m ou
us ter</w>
it z</w>
char ter</w>
par allel</w>
ath on</w>
D ru
19 15</w>
fi cient</w>
cau sing</w>
et ta</w>
On ce</w>
ad ing</w>
lu x
oper ational</w>
R ay</w>
em en</w>
p ers</w>
Win ners</w>
19 16</w>
og a</w>
h at</w>
i to
spon sored</w>
An n</w>
N FL</w>
Cul tural</w>
ban ded</w>
attrac ted</w>
u tah</w>
eb ra
requ est</w>
j on
hi bit</w>
cur y</w>
frequ ency</w>
fil m
f rac
Chap ter</w>
success or</w>
ph on
In dex</w>
sett lements</w>
A D</w>
Sec urity</w>
dec ides</w>
pati ent</w>
mam m
in de
restor ation</w>
syn thesis</w>
G allery</w>
ea u</w>
bor ders</w>
nor man</w>
bloc ks</w>
pho tos</w>
ma kers</w>
as sin
ra j
pre ad</w>
ri ding</w>
f eat</w>
licen se</w>
chi at
D anish</w>
op tion</w>
ph ra
qu anti
Hous ing</w>
ali zing</w>
rapi dly</w>
depen ding</w>
legisla ture</w>
st ac
ver te
si mul
r u</w>
Col orado</w>
i o
ha us
G am
susp ended</w>
certi fied</w>
ov ic</w>
es c
Econom ic</w>
19 23</w>
Execu tive</w>
é s</w>
o bli
Edin burgh</w>
i 's</w>
guil ty</w>
fil ed</w>
the atre</w>
comm emor
s field</w>
sugge sts</w>
ed o</w>
Su preme</w>
enter ing</w>
19 13</w>
great ly</w>
fre derick</w>
func tional</w>
norm ally</w>
du al</w>
si t
em ig
cri ticism</w>
Premi er</w>
r ons</w>
brea ks</w>
ti de</w>
ag o
strong ly</w>
p g</w>
nav ig
Fre derick</w>
princip les</w>
sa il
lin d
show ing</w>
assi stance</w>
col leges</w>
stu dying</w>
spea ker</w>
man 's</w>
Med al</w>
cl one</w>
histor ian</w>
v essels</w>
En ergy</w>
du m</w>
ag an</w>
f ung
col ony</w>
ne o</w>
mir al</w>
schol ars</w>
main tain</w>
C S
pro test</w>
p it</w>
h att
fic tional</w>
B ase</w>
n u</w>
ru ption</w>
c 's</w>
li mit</w>
mp tion</w>
missi ssippi</w>
wi des
other wise</w>
j et</w>
hi bit
Revi ews</w>
trea ty</w>
D eu
D am
th ompson</w>
cover ing</w>
Ok lahoma</w>
fund ed</w>
pan el</w>
ca ve</w>
enzy me</w>
mea sure</w>
fer ences</w>
a tically</w>
edin burgh</w>
a issance</w>
li ms</w>
s ors</w>
si te
up date</w>
ali ze</w>
is sa</w>
every one</w>
bu l</w>
pro jec
y am
ver lag</w>
re ven
En cyclopaedia</w>
ann on</w>
un usual</w>
C l
ini st</w>
sy mp
cap it
t ing
si ght</w>
consider able</w>
associ ate</w>
shop ping</w>
ti les</w>
m organ</w>
th al</w>
ci st</w>
christ mas</w>
Christ mas</w>
e z
I ni
B and</w>
extre me</w>
tribu tary</w>
com pla
coach ing</w>
dec line</w>
a il</w>
be ar
thre at</w>
ap art</w>
contin ental</w>
cl er
N AS
n one</w>
keep ing</w>
um bai</w>
S om
Mur ray</w>
v ec
di er</w>
Il lu
pre domin
Spr ing</w>
tran s</w>
stan ts</w>
form ers</w>
beau ty</w>
B ad
hun t</w>
popu lations</w>
Ro ss</w>
D al
hor n</w>
rac ks</w>
eg gs</w>
S on
An d
trav eled</w>
sc and
mess age</w>
bas sy</w>
po em</w>
V is
d ell</w>
cli f
ge or
activ ated</w>
Egy pt</w>
b und
ond a</w>
leg islation</w>
Sci enti
ext inct</w>
manufac tured</w>
ro cks</w>
h ed
ma ss
univer se</w>
Pri me</w>
R ad
Tem ple</w>
en han
k op
tro phy</w>
co l</w>
k ha
comp li
ac a</w>
ani mated</w>
cri tic</w>
a x</w>
T ha
l incoln</w>
eb rew</w>
pione er</w>
ar rest</w>
li sting</w>
ere my</w>
common wealth</w>
rapi d</w>
nan dez</w>
hel icop
A T</w>
ob itu
arri val</w>
allow ing</w>
P on
k la
ame ter</w>
j ane</w>
it i</w>
cer am
D own</w>
te m</w>
m ack
y m</w>
t sch
teri al</w>
que bec</w>
t ter
Bec ause</w>
birth day</w>
r in</w>
t ram
ves sel</w>
ten ance</w>
vo ting</w>
cas h</w>
chann els</w>
cor respond
Ro se</w>
spr ings</w>
hun ting</w>
Legisla tive</w>
gradu ation</w>
f led</w>
ri ver
te t</w>
ra ising</w>
er ie</w>
To kyo</w>
im m
Ste ven</w>
F ul
re venue</w>
repu tation</w>
c ester</w>
Fu ture</w>
del e
an te
ac ci
at on</w>
W it
hel m</w>
hi st</w>
Auth ority</w>
pat terns</w>
ur us</w>
kilomet res</w>
gu ez</w>
gra ded</w>
mov ements</w>
child ren's</w>
el ement</w>
e o
V I
f us
Swit zerland</w>
sum mit</w>
vir tual</w>
il ers</w>
en ess</w>
figh ters</w>
N elson</w>
h l
ste ven</w>
li te
t ron</w>
M ea
mur ray</w>
Ad ams</w>
ch ari
by cidae</w>
no tic
der ing</w>
b re</w>
Bar bara</w>
de t</w>
L incoln</w>
con text</w>
sh oot</w>
E ag
wh ere
ap p</w>
to kyo</w>
con ce
H ere</w>
my th
t as</w>
Web site</w>
Collec tion</w>
is che</w>
ra id</w>
Sto ck
y ar
ten ing</w>
y ear
h ori
2 3
plat forms</w>
ran ks</w>
frequ ent</w>
ci ple</w>
bar bara</w>
Th rough</w>
la di
trans mission</w>
in ter</w>
fri ed
tum n</w>
gu er
sh ol
N Y</w>
col lins</w>
ex ists</w>
Americ ans</w>
q i</w>
el ds</w>
190 5</w>
ff s</w>
divor ced</w>
go al
deta iled</w>
per haps</w>
W he
o a</w>
influ ential</w>
an apolis</w>
defen ding</w>
G rant</w>
K ent</w>
B e</w>
se ek</w>
Bi o
Up on</w>
characteri zed</w>
main tenance</w>
i ff</w>
I denti
Sy stems</w>
fac ing</w>
Col lins</w>
vo y</w>
fin ding</w>
N eu
Dem ocra
w eigh
transi t</w>
sk ating</w>
ti ous</w>
L ong
E mer
fa vor</w>
F .C</w>
I mp
S ound</w>
Fre e
in nings</w>
C ape</w>
americ ans</w>
tin um</w>
swit zerland</w>
comple tion</w>
Nor man</w>
Direc tory</w>
peti tion</w>
at lanta</w>
down load</w>
w al</w>
s op
do l</w>
survi ving</w>
lin ear</w>
gar ia</w>
sculp ture</w>
mean while</w>
A F
des ert</w>
grand father</w>
i i</w>
ev ille</w>
oul der</w>
th y
v als</w>
cap able</w>
fil l</w>
Hu gh</w>
si mu
ati a</w>
ju ris
p uni
ass ault</w>
don 't</w>
Y ou
c i</w>
can not</w>
re leg
Common wealth</w>
tun nel</w>
ma ine</w>
dra wing</w>
Princ eton</w>
Sy n
rec overed</w>
scop e</w>
wal king</w>
inte l
bor o</w>
Stand ard</w>
tra ded</w>
A D
K ol
lin e
R ace</w>
u lum</w>
appear ing</w>
olog ists</w>
Ro binson</w>
E sti
identi fication</w>
ev il</w>
TH E</w>
e b</w>
phen om
g el
ali ve</w>
H L</w>
fres h</w>
peri or</w>
g ab
ab road</w>
ch y</w>
ag as
accomp li
monas tery</w>
su gar</w>
po pe</w>
de e</w>
princ eton</w>
re mo
Ch all
descen d
antoni o</w>
Camp bell</w>
Con tin
co ol
al lo
Poli tics</w>
be ars</w>
sk et
alg ori
S hu
a g</w>
gradu ally</w>
far mers</w>
ch ment</w>
ra ise</w>
hous ed</w>
wides pread</w>
M ak
te sted</w>
du s</w>
increas es</w>
don ated</w>
electri cal</w>
R ho
sm oo
rea ches</w>
ad ams</w>
hu gh</w>
rep ren
sing h</w>
le k
ther more</w>
Au stria</w>
ex po
W o
strugg le</w>
dea ths</w>
I G
d allas</w>
over view</w>
st ric
G ood
leg s</w>
way ne</w>
arri ves</w>
f l
in o
fil ming</w>
togra phy</w>
indi genous</w>
be d
th es</w>
es h</w>
portra it</w>
at o
appar ently</w>
ent repren
occa sions</w>
le ston</w>
e der</w>
me etings</w>
increas ingly</w>
T ol
ri val</w>
pro posal</w>
Ma x
Pro fes
a z</w>
s and</w>
bas in</w>
br ings</w>
sub marine</w>
K han</w>
touri st</w>
Du blin</w>
ric o</w>
P il
custom ers</w>
ass essment</w>
tam il</w>
