the 84575140
. 76648352
of 50957352
, 44840461
in 37521239
and 33581237
a 29058740
to 23217537
twenty 17995612
is 16832164
was 16713108
on 13923886
two 13206039
The 11076431
for 10768282
by 8905555
as 8823610
nineteen 8579653
thousand 8372207
one 8017691
with 7487809
from 7468910
s 7360417
at 7301991
an 6723743
o 6586272
retrieved 6581693
he 6525068
Retrieved 6502849
i 6274452
p 6253113
: 6233803
's 6222878
- 5913914
t 5432631
his 5261406
it 5128649
e 4991573
are 4876425
three 4742178
d 4490879
c 4379819
hundred 4333003
first 4239067
five 4202078
four 4098075
that 4085961
nine 4085915
were 4070382
re@@ 4017830
S@@ 3991856
m 3975781
eight 3961804
n 3904408
six 3789091
seven 3775769
k@@ 3761239
also 3588120
in@@ 3587839
l 3519419
u 3462738
d@@ 3379768
has 3349752
s@@ 3292337
or 3246654
ninety 3153008
k 3096358
b 2969945
this 2946866
ed 2906697
t@@ 2888515
In 2888320
be 2853958
o@@ 2824245
new 2801700
y@@ 2784455
r 2763728
f 2686683
es 2673035
g@@ 2668849
C@@ 2666614
B@@ 2665960
b@@ 2652222
T@@ 2649185
y 2634213
ten 2610782
He 2577280
h 2566421
P@@ 2562931
er 2513692
en@@ 2511245
L@@ 2488568
fifteen 2479471
ing 2477489
i@@ 2463932
p@@ 2444788
g 2431235
its 2420694
al 2379727
al@@ 2378290
n@@ 2377627
fourteen 2356354
an@@ 2354763
e@@ 2339566
eighty 2336388
had 2315257
A@@ 2310301
twelve 2296697
u@@ 2289844
H@@ 2288726
ts 2280175
thirteen 2277034
de 2269248
D@@ 2258968
h@@ 2251849
G@@ 2251374
N@@ 2248181
M@@ 2234491
F@@ 2218009
c@@ 2207273
z@@ 2183761
f@@ 2170602
E@@ 2166459
eleven 2160974
di@@ 2158399
K@@ 2150157
ch@@ 2105990
ra@@ 2100320
li@@ 2090315
It 2068432
thirty 2063047
ar@@ 2053250
am@@ 2046746
2015 2042284
R@@ 2038826
2014 2023887
la@@ 2009133
er@@ 2008644
sh@@ 1983261
their 1979208
ro@@ 1978658
her 1975072
not 1942074
may 1933879
ri@@ 1914280
second 1914132
seventy 1910711
2013 1897408
which 1891645
ti@@ 1877302
v@@ 1854913
2012 1851642
have 1848648
W@@ 1835012
en 1831902
1 1810481
ers 1807183
she 1806656
2011 1797029
after 1795513
a@@ 1786410
eighteen 1782371
original 1776545
O@@ 1775341
un@@ 1772528
all 1771701
st 1771500
v 1770155
sixty 1769284
forty 1764277
m@@ 1759744
fifty 1759387
si@@ 1735677
el@@ 1730968
th 1704977
or@@ 1690333
w@@ 1680695
they 1676688
; 1664122
con@@ 1656208
been 1649606
j@@ 1649031
ted 1643732
point 1633762
2010 1619348
time 1600772
but 1592210
es@@ 1591284
2 1575302
I@@ 1565486
w 1555442
th@@ 1528861
as@@ 1516309
is@@ 1512605
on@@ 1507067
le@@ 1491553
man 1486936
New 1459991
march 1455817
st@@ 1451492
january 1451152
ad@@ 1449833
son 1448789
de@@ 1447782
ation 1446105
lo@@ 1439454
us 1430706
born 1426047
x 1420830
third 1419830
te@@ 1416050
there 1408661
January 1408253
ma@@ 1405850
A 1402494
at@@ 1398180
into 1382033
3 1381598
March 1378074
who 1376230
october 1376105
july 1367421
november 1367411
l@@ 1357933
over 1355127
june 1347410
other 1337958
august 1333583
ter 1330882
december 1317244
tion 1317025
april 1316595
september 1314524
ting 1313321
/ 1311602
school 1310937
el 1308233
October 1307149
V@@ 1306871
July 1305522
May 1303666
age 1301538
et 1294227
J@@ 1290347
June 1287315
ate 1279621
up 1276390
August 1271420
february 1259378
December 1254485
April 1253119
se@@ 1250725
November 1247516
September 1246062
national 1243928
mar@@ 1243106
4 1241599
years 1226450
le 1217928
can 1217347
2009 1215200
year 1213321
co@@ 1208033
ag@@ 1202209
fourth 1198459
February 1196075
city 1195116
z 1193274
to@@ 1185221
ic 1183003
out 1176630
more 1175312
ab@@ 1170909
te 1169291
em@@ 1165333
university 1163256
ton 1162626
family 1161745
5 1161492
ac@@ 1159978
der 1145600
during 1141139
mo@@ 1135281
om@@ 1117842
j 1116222
ch 1114038
sp@@ 1113748
used 1111902
ds 1111210
state 1110456
ta@@ 1105197
r@@ 1103723
fifth 1089440
ine 1087142
se 1086622
po@@ 1079296
2008 1075511
pro@@ 1073363
only 1072751
au@@ 1072639
ex@@ 1071728
car@@ 1069856
ly 1057880
most 1056339
world 1054130
University 1051518
6 1049995
vi@@ 1049398
ne@@ 1046172
film 1045609
became 1043852
about 1040697
sixth 1038786
im@@ 1038719
population 1026743
per@@ 1025090
later 1025062
ia 1023876
be@@ 1020145
ent 1014056
land 1013216
when 1010302
red 1008207
seventh 1008130
7 1006434
& 1003405
.@@ 998870
eighth 997022
This 991564
pe@@ 990532
op@@ 990392
su@@ 982607
ic@@ 980582
king 980122
then 977200
ke 975758
In@@ 965016
ap@@ 963106
10 960592
2007 959932
gu@@ 957567
ha@@ 956910
made 955250
ninth 954329
8 952098
him 951500
par@@ 945296
part 937121
some 936952
sixteen 934444
released 932963
9 932906
als 927657
known 927184
team 926541
x@@ 925783
per 923494
sa@@ 921450
man@@ 920792
11 920507
tions 918788
fi@@ 918196
no 915796
bo@@ 912644
ans 910141
album 906890
bu@@ 905557
between 901277
sil 898043
ru@@ 896376
qu@@ 893428
york 891962
ol@@ 886570
ur@@ 884570
many 880683
Re@@ 877382
it@@ 875943
press 874705
no@@ 873526
U@@ 864440
National 864058
tri@@ 862137
tes 861291
20 855422
than 853746
ed@@ 853334
mi@@ 852872
Y@@ 848145
well 848062
bi@@ 846314
through 844473
2006 844111
ph@@ 841516
played 841003
ber@@ 839547
12 838758
ter@@ 837952
ci@@ 837636
day 833973
these 833740
bar@@ 832933
Ch@@ 827893
um 825075
times 821539
il@@ 820942
ge@@ 820912
ig@@ 820420
town 818077
ated 817624
history 815275
ty 812870
Mar@@ 811406
pi@@ 808648
under 808414
located 801396
lu@@ 799251
ry 797571
music 795270
season 793753
pa@@ 789116
me@@ 788526
3@@ 787708
dis@@ 787309
ni@@ 786208
area 785462
people 784324
where 784297
les 784126
Z@@ 782606
ak@@ 776284
pre@@ 774729
name 774376
would 773794
ks 773033
ding 771371
York 770511
archived 767200
ters 766374
ve 766304
tive 760826
Press 759443
har@@ 759267
15 758417
united 756214
ar 755991
ley 754558
res 752672
oc@@ 751353
Archived 749691
company 746578
tra@@ 746164
number 745537
ten@@ 744053
Ar@@ 742349
du@@ 742090
Con@@ 740925
et@@ 740081
tic 739424
mon@@ 738031
died 737549
states 735281
work 734889
census 734523
until 733632
high 732554
min@@ 731925
both 730020
ver@@ 724427
An@@ 723950
18 722090
United 720859
way 719365
won 719228
Al@@ 717303
ste@@ 716576
series 716521
ca@@ 713294
do 713150
ous 713065
ul@@ 709321
house 708883
species 708845
ir@@ 708466
will 707650
sch@@ 705357
ons 703643
county 700702
19 699110
14 697089
war 695416
now 694569
lan@@ 690443
16 690387
13 689621
able 689495
30 688749
ant 688019
inter@@ 687279
line 686066
dot 685292
com@@ 683185
am 682722
hi@@ 681463
ally 679276
tu@@ 677542
cor@@ 675523
pu@@ 675416
ta 674785
re 674652
south 674520
field 672538
17 672096
several 669408
ard 668650
She 668457
é@@ 668265
ang@@ 666643
group 664837
found 664186
district 663935
25 662955
I 662866
ary 662246
for@@ 661595
og@@ 660101
ded 658629
since 657979
before 657456
station 655654
co 653635
21 650920
On 650459
old 648561
ep@@ 648427
ana 648239
back 647535
american 646758
called 646745
game 645980
da@@ 645448
ings 645299
began 644972
World 644345
based 643480
ing@@ 643030
named 642754
American 641935
col@@ 641881
ations 641479
end 639883
S 636107
early 635656
ov@@ 634379
der@@ 629958
ou@@ 628779
ev@@ 628521
da 627377
use 626463
22 625499
il 625403
ce 621982
24 621780
against 619225
sion 618542
village 617381
north 616761
ow@@ 613577
system 611952
la 611873
ec@@ 611482
however 611476
ner 610601
Ro@@ 610275
ga@@ 609848
Sh@@ 608797
public 608645
sc@@ 608449
tor 606509
he@@ 605856
23 605366
such 605157
international 601920
os 599360
them 598712
4@@ 598489
and@@ 597720
Car@@ 596794
um@@ 595757
being 595684
ker 593756
while 593685
sts 593660
26 592276
28 591631
eleventh 590326
ology 588262
place 587456
percent 586065
ge 585782
home 585688
cu@@ 585140
ran@@ 582757
war@@ 582211
1@@ 582195
off 581288
27 580873
ys 580780
States 580730
mu@@ 578265
ka 577972
E 577054
each 576339
gi@@ 576066
ins 576009
gra@@ 575013
des 573768
set 572869
C 572843
sub@@ 572496
ps 569723
led 568662
wi@@ 568470
ble 568318
ali@@ 567964
D 564153
life 562801
ance 562239
service 561815
go@@ 560313
sk@@ 559823
book 559685
do@@ 559160
29 558180
twentieth 557102
ay@@ 555824
side 555611
former 554594
ler 553205
built 551454
id@@ 551285
song 551278
hu@@ 550071
2005 549908
nineteenth 547818
den@@ 547314
west 547086
ren@@ 545301
tenth 544826
band 544063
na@@ 542726
ob@@ 542446
ba@@ 541750
art 541653
John 541368
seventeen 540486
res@@ 538660
rec@@ 538332
T 537911
Ma@@ 537105
fifteenth 536339
ju@@ 535208
any 535182
PDF 534657
ho@@ 534038
served 533222
john 533113
received 531901
ating 531880
wa@@ 530645
including 530279
same 529069
ent@@ 528264
took 526850
mer@@ 525738
twelfth 525564
government 525101
ses 524848
club 524517
ies 523564
fe@@ 522924
so 522563
eighteenth 522455
M 522290
Times 522279
ents 521139
av@@ 520776
held 520303
ties 518365
ves 518259
very 517923
They 517842
ay 517228
seventeenth 515689
Pro@@ 515493
bri@@ 515476
5@@ 515064
ale 514853
sta@@ 513652
ian 512155
published 512036
sixteenth 511294
ven@@ 510837
fourteenth 510270
bra@@ 509157
single 508776
ship 508475
ck 508072
football 506980
% 506405
eb@@ 506270
thirteenth 506170
building 505913
18@@ 505909
century 505348
2004 504019
0 503886
R 499974
os@@ 499962
London 499458
jo@@ 498471
center 497933
can@@ 497324
eg@@ 497246
ling 496238
ang 495249
ne 494918
london 494344
following 493698
ea@@ 493691
long 493601
ra 493405
tor@@ 493326
church 492356
ment 492061
2016 491933
ence 491641
ey 491453
all@@ 491262
million 489826
show 489254
around 489143
id 488899
af@@ 488080
gen@@ 486890
pen@@ 486302
dy 484833
P 484313
her@@ 483805
top 483545
late 482175
news 480967
sen@@ 479729
tation 476795
the@@ 476442
sh 476039
square 475584
B 475270
ie 473323
pri@@ 472317
like 471225
As 469988
married 469489
last 469233
left 468697
east 466986
Mo@@ 466513
local 466327
School 466065
college 465722
2000 465522
did 464424
His 464395
so@@ 463639
play 462623
Gu@@ 462220
State 461872
Su@@ 459746
best 459555
water 459374
ford 459272
Th@@ 458931
ked 458876
down 457869
dollars 457137
thirtieth 457124
ma 456752
general 456505
league 455294
us@@ 454566
ors 452028
del@@ 451892
final 451677
17@@ 451391
small 451195
There 450812
ina 450404
fer@@ 449294
men 449145
oo@@ 444890
Par@@ 444449
gh@@ 443816
go 443059
8@@ 442193
death 439045
Li@@ 435542
form 435318
ham 435255
bur@@ 435116
den 435088
ill@@ 434976
ari@@ 434932
main 434862
6@@ 434257
park 433936
$ 433858
games 432900
Bar@@ 428752
und@@ 428401
office 427396
na 427381
still 427333
After 426868
me 426469
children 425608
include 425501
7@@ 423723
moved 423622
another 423310
official 423238
law 422907
ice 422779
over@@ 421605
ya 421438
information 420129
fa@@ 419016
member 418370
ke@@ 418317
31 418246
pla@@ 418146
De@@ 417974
site 417181
out@@ 416831
Mc@@ 416780
we@@ 416695
History 416520
community 416312
Le@@ 416155
dec@@ 415451
own 415379
ber 415342
player 415307
department 414629
2003 414298
ens 414105
F 413454
Ex@@ 413164
members 413036
career 412541
L 412461
est@@ 411524
ach@@ 407201
J 406345
ell@@ 405230
list 404414
2@@ 404377
Com@@ 403566
under@@ 403222
started 401132
lin@@ 400973
fin@@ 400875
election 400737
often 400394
9@@ 398492
ai@@ 397978
again 397617
our 396821
St@@ 396392
Co@@ 394811
Bo@@ 394143
ko@@ 393921
large 393535
tt@@ 393476
ani@@ 392929
air 392127
Jo@@ 392064
ire 391821
ical 391503
Mon@@ 390455
ir 390157
average 389343
within 389096
Har@@ 388584
ser@@ 388214
pp 387917
near 387304
iv@@ 386532
students 385619
gar@@ 385407
shi@@ 384688
For 384682
2001 383994
less 383302
sed 381446
2002 380948
ism 380637
win 380020
father 379919
City 379883
saint 379618
head 379174
hy@@ 378814
Per@@ 378269
vo@@ 377434
At 377034
version 375407
river 375056
ster 374935
South 374902
Di@@ 374762
tors 374625
ram@@ 372367
different 371737
road 371022
tw@@ 370862
O 370844
10@@ 370395
included 369986
business 369748
berg 369522
race 369258
see 369021
every 368656
review 368639
ments 367933
went 367750
currently 367458
ders 367374
ics 367349
men@@ 367339
Bu@@ 367314
bel@@ 366277
joined 366248
ef@@ 366128
record 364356
ger 362490
ory 362199
party 361160
power 360657
International 360602
ty@@ 360553
ines 360207
ms 360083
dem@@ 359991
release 359897
development 359787
County 359740
az@@ 359572
ns 359523
0@@ 359014
major 358998
founded 358801
Sch@@ 358501
tic@@ 357992
mor@@ 357448
produced 357413
que 355038
due 354885
sis 354757
along 354454
elected 354444
di 354406
ly@@ 354144
ver 354064
sing 353972
ck@@ 352983
ft 352797
research 352370
mer 351989
non 351975
established 351282
title 350529
ore 350507
western 350480
written 349942
education 348899
next 348139
opened 347954
News 347699
could 347603
Me@@ 347542
Be@@ 347348
post 346325
end@@ 346032
ass@@ 345038
country 343569
program 343437
trans@@ 343051
por@@ 342689
ture 341510
16@@ 341480
bal@@ 340909
returned 340523
ise 339944
char@@ 339356
media 338464
X@@ 338399
works 338063
Ra@@ 337588
q 337485
app@@ 336913
Census 336886
central 336397
story 336089
sal@@ 335900
eng@@ 335763
up@@ 334734
mat@@ 334597
ess 334305
cy@@ 334185
ats 334056
region 333822
rac@@ 333670
All 333571
ator 333189
kilometers 332524
comp@@ 332508
video 332305
ces 332157
ure 331814
historic 331239
tur@@ 330340
ned 330109
sions 329717
ze 329668
dra@@ 329603
ah 329595
Lu@@ 329416
ori@@ 329402
inc@@ 328763
books 328406
president 328210
ess@@ 327807
board 327159
ong 326694
ry@@ 326397
mal@@ 325481
ce@@ 325127
ville 324954
days 324722
via 324392
order 324363
great 324268
els 324251
british 323974
ann@@ 323946
tical 323910
Po@@ 323845
class 323803
association 323799
production 323772
British 323204
War 322677
worked 322315
uni@@ 322268
ell 321546
wor@@ 321340
light 321329
s' 321175
sive 321026
wood 320972
tan@@ 320524
G 320475
ston 319485
Vi@@ 319394
formed 319039
hol@@ 318943
low 318815
However 318666
came 318624
Ju@@ 318120
california 318100
continued 317965
pal@@ 317818
cal@@ 317784
using 317758
television 317155
lar 316912
white 316883
Au@@ 316459
ness 316409
among 316110
live 315818
role 315563
society 315383
inc 315341
appeared 314773
ning 314636
ham@@ 314440
signed 314186
income 312776
wh@@ 312602
ther 312367
if 310812
women 310317
tro@@ 309849
ement 309582
tional 309514
my 309123
ality 308381
Ad@@ 308145
clo@@ 307869
tics 307531
ther@@ 307480
ches 307248
eu@@ 307132
right 306653
ung 306251
just 306117
division 306115
sen 305602
dri@@ 305289
nor@@ 305009
star 304239
size 303940
services 303823
oli@@ 303722
free 303374
stra@@ 303331
cla@@ 303207
human 303122
round 302866
radio 302853
full 302785
car 302262
level 302182
Bi@@ 301978
ger@@ 301853
mc@@ 301817
said 301650
project 301622
ric@@ 301135
available 301133
H 300797
ki@@ 300558
tt 300482
ki 300351
ban@@ 299381
journal 298947
ro 298917
Tra@@ 298584
David 298430
é 298428
bro@@ 298382
website 298371
award 297780
open 297712
bre@@ 297634
For@@ 297619
various 297560
ological 297426
take 297334
ls 297282
N 296872
david 296667
air@@ 296404
ants 295438
because 295285
15@@ 294960
ath@@ 294701
bor@@ 294618
pe 294405
ash@@ 294182
est 293834
Col@@ 293436
chi@@ 292877
total 292847
become 292557
pan@@ 292524
edi@@ 292514
ah@@ 292500
ff@@ 292327
India 292271
Bri@@ 292079
Ber@@ 291775
ss@@ 291119
run 291029
North 291005
recorded 290459
described 290409
stone 290300
ery 290243
we 289623
1999 289120
los 289001
ve@@ 288914
lation 288817
Se@@ 288752
what 288687
director 288237
black 288021
pres@@ 287841
Ste@@ 287728
island 287658
50 287538
created 287464
table 287458
register 287413
make 287096
india 286870
lost 286799
of@@ 286051
hor@@ 285885
ade 285832
cre@@ 284863
sw@@ 284752
cri@@ 284544
sur@@ 284431
za 284090
you 283733
short 283661
even 283272
science 283021
ates 282462
popular 282288
much 282266
results 281460
En@@ 281453
K 280668
mark 280210
my@@ 279867
ad 279564
shed 279451
kar@@ 279300
political 279266
san 279243
support 278942
ration 278849
port 278484
Gra@@ 277937
council 277745
sa 277488
act 277264
online 277208
position 276678
accessed 276093
language 276064
ick 276046
professional 275617
fran@@ 275152
od@@ 274990
Qu@@ 274795
fla@@ 274784
pol@@ 274694
ba 274540
Cor@@ 273914
court 273727
ane 273537
ils 273416
ben@@ 273239
union 272701
wife 272596
del 272570
german 272213
ick@@ 271265
189@@ 271262
ill 271225
Park 271195
page 270971
common 270694
ka@@ 270054
German 269987
period 269947
are@@ 269851
let 269808
br@@ 269797
fre@@ 269698
appointed 269439
young 269387
tom@@ 269333
announced 269166
1998 268820
lem@@ 268589
body 268517
str@@ 267975
rock 267906
military 267831
bs 267521
report 267321
sold 267268
College 266985
Register 266870
army 266856
ond@@ 266649
ative 266357
given 266073
ron@@ 265917
families 264848
Pri@@ 264798
street 264616
La@@ 264255
Department 263946
bla@@ 263936
sports 263875
ama 263700
100 263214
han@@ 262791
cam@@ 262702
ili@@ 262379
Sa@@ 261987
magazine 261908
cro@@ 261817
eastern 261688
tar@@ 261286
ity 261117
cur@@ 260511
tru@@ 260220
songs 259850
current 259845
design 259443
don@@ 259051
cat@@ 259033
US 258877
data 258566
yer 258552
get 258452
enti@@ 258245
cas@@ 258192
son@@ 258066
event 258031
case 257710
schools 257615
without 257547
median 257438
spec@@ 257413
tin@@ 257346
ku@@ 257227
ISBN 257206
ok@@ 256746
important 256587
U.S. 256300
stri@@ 256195
french 255727
Or@@ 255658
cop@@ 255607
ist 255353
League 254985
Am@@ 254951
From 254766
ney 254742
cra@@ 254730
type 254616
French 254610
W 254459
fu@@ 254458
II 254429
zero 254121
by@@ 253991
mother 253987
ha 253823
tim@@ 253445
James 253278
females 253178
sea 252935
Bra@@ 252925
TV 252899
Un@@ 252877
social 252096
U 252066
Association 252047
places 251991
disc@@ 251882
night 251847
those 251773
uses 251760
Hu@@ 251367
a's 251227
lea@@ 251158
debut 250913
ew@@ 250865
kn@@ 250843
zi@@ 250804
considered 250666
far@@ 250407
style 250232
james 250199
sti@@ 249999
half 249760
names 249550
developed 249483
never 249394
control 249321
range 249260
gre@@ 249073
1990 249052
zed 248924
super@@ 248856
english 248804
volume 248736
wal@@ 248722
teams 248692
ways 248582
arch@@ 248551
force 248388
ving 247921
An 247857
lies 247845
English 247500
lec@@ 247469
ended 247439
fire 247069
features 246989
ut@@ 246877
lo 246818
edition 246743
rou@@ 246602
ong@@ 246446
ran 246203
listed 245721
cap@@ 245697
daughter 245428
hall 245278
House 245251
zation 245217
few 244967
eds 244635
Ge@@ 244562
ga 244389
lar@@ 244296
Hol@@ 244155
Australia 243788
comm@@ 243657
pra@@ 243651
records 243518
daily 243474
Fin@@ 243273
eli@@ 243105
00 242995
hel@@ 242891
municipality 242875
mac@@ 242751
One 242724
library 242623
y's 242575
miles 242419
date 242114
once 242082
These 242064
museum 241995
ages 241898
rate 241869
ars 241818
construction 240826
don 240799
Journal 239885
bas@@ 239840
championship 239657
District 239340
Si@@ 239154
van 239141
sm@@ 239127
1997 239085
During 238921
14@@ 238894
ved 238881
does 238834
william 238322
article 238228
No@@ 238130
term 238055
awards 237825
William 237756
genus 237675
fac@@ 237645
England 237450
modern 237398
Mu@@ 237373
pp@@ 237348
track 237313
route 237293
Mor@@ 237261
working 237110
originally 236982
episode 236843
ti 236368
dar@@ 236102
ton@@ 235885
includes 235712
cing 235515
Ac@@ 235451
West 235378
ken@@ 235206
cy 235201
ths 235183
here 235001
together 234963
our@@ 234786
wrote 234725
Company 234708
Her@@ 234517
ca 234281
how 234125
Music 234062
alist 233835
summer 233677
188@@ 233675
ot 233554
england 233521
southern 233500
areas 233465
northern 233397
sec@@ 233136
australia 233129
.com 233092
brother 232754
tem@@ 232579
special 232544
ss 232486
killed 232350
din@@ 232321
completed 232315
ur 232303
kes 232164
present 231781
ite 231701
du 231566
ear@@ 231556
des@@ 231514
ak 231486
X 231323
ever 231265
vari@@ 230993
val@@ 230898
network 230784
ile 230663
n't 230235
speci@@ 230210
usually 230187
playing 230101
ase 230059
largest 229871
1996 229804
Society 229770
les@@ 229770
Robert 229697
historical 229638
dae 229325
cen@@ 228804
robert 228502
ore@@ 228167
ff 228095
meters 227970
ich@@ 227854
new@@ 227773
ko 227684
units 227617
ano 227449
Mal@@ 227314
ant@@ 227128
ington 227094
ich 226936
ged 226867
win@@ 226826
sky 226749
Dis@@ 226688
test 226577
die 226192
stage 226093
gri@@ 226074
bat@@ 225871
190@@ 225831
len@@ 225577
dev@@ 225483
emb@@ 225190
ara 225175
performed 225055
Ne@@ 225054
ish 224904
tal@@ 224856
attended 224812
come 224781
good 224740
railway 224702
tre@@ 224483
throughout 224389
Ru@@ 224198
'@@ 224196
pat@@ 224046
match 223893
further 223890
institute 223508
Pal@@ 223446
tin 223168
ron 223113
san@@ 222516
sla@@ 222456
change 222331
study 222293
hal@@ 222240
tour 221969
away 221915
designed 221823
rer 221745
qui@@ 221691
making 221589
directed 221538
ena 221487
lead 221461
ica 221351
und 221035
owned 220338
shire 220318
finished 220317
space 220315
plan@@ 220303
Pi@@ 220278
structure 220135
cal 220009
13@@ 219968
gener@@ 219526
inf@@ 219495
studies 219203
ja 218972
males 218873
australian 218768
remained 218640
Australian 218231
1995 218034
mil@@ 217940
vic@@ 217925
police 217909
burg 217688
republic 217480
result 217287
ying 217098
addition 217088
2.@@ 216632
Man@@ 216551
tion@@ 216540
points 216502
michael 216032
ani 215907
love 215826
plant 215772
similar 215708
lines 215640
coach 215138
ino 215119
Wil@@ 214904
ski 214818
Bur@@ 214800
ined 214608
Michael 214554
ones 214539
health 214337
America 213852
eventually 213637
bridge 213613
ground 213451
section 213225
washington 213041
ability 212904
ala 212893
coun@@ 212776
wil@@ 212680
sy@@ 212609
himself 212604
taken 212585
ear 212536
forms 212385
added 212152
mann 212151
lake 212079
M. 212006
hom@@ 211971
events 211780
ful 211655
High 211482
limited 211416
awarded 211382
featured 211286
ker@@ 211100
royal 210617
training 210578
loc@@ 210548
By 210501
lated 210254
Mi@@ 210213
Ver@@ 210166
according 209997
today 209860
reg@@ 209843
sol@@ 209749
ja@@ 209586
va 209199
om 208765
lie 208764
little 208743
mile 208651
V 208637
acc@@ 208585
olog@@ 208449
ine@@ 208260
40 208243
players 207976
publishing 207969
era 207941
ist@@ 207919
sel@@ 207448
Republic 207443
density 207387
sting 207195
fied 207123
Bro@@ 207017
nam@@ 206619
replaced 206564
active 206540
row 206435
dic@@ 206411
battle 206121
natural 205701
organization 205560
Information 205533
fication 205250
week 205146
ight 205141
ere 205124
General 205091
ships 205011
novel 204923
sin@@ 204747
ced 204685
Historic 204673
aircraft 204577
nu@@ 204553
cru@@ 204273
having 203521
dro@@ 203423
green 203325
186@@ 203260
To@@ 203196
dan 202855
arian 202756
Pe@@ 202661
mel@@ 202636
independent 202635
bert 202604
character 202476
feet 202285
Fi@@ 202196
plays 202028
tly 201684
ata 201620
illi@@ 201609
ol 201468
Service 201433
put 201245
amp@@ 201235
1994 201026
shes 200731
che@@ 200425
land@@ 200422
successful 200404
must 200380
cli@@ 200264
soon 200213
? 200196
ack 200188
When 200095
rest 199673
yn@@ 199580
stu@@ 199552
Can@@ 199489
teri@@ 199407
gen 199342
hon@@ 199174
systems 199109
Nor@@ 199064
annual 198931
ll 198886
industry 198810
Sta@@ 198673
oni@@ 198608
private 198604
ges 198401
ren 197869
lic@@ 197868
ald 197772
seen 197644
Gar@@ 197547
changed 197444
Cam@@ 197153
lin 197104
bul@@ 196868
key 196721
others 196629
bility 196625
Washington 196622
sent 196459
wide 196430
america 196354
tran@@ 196192
Min@@ 196143
dy@@ 195974
sil@@ 195811
bureau 195780
dom@@ 195770
aw@@ 195765
gam@@ 195677
tures 195628
Canada 195592
01 195505
ser 195326
zz@@ 195267
cel@@ 195229
J. 195173
ched 195073
q@@ 194646
hi 194619
model 194351
Ri@@ 194242
return 194141
performance 193914
kin@@ 193845
Oxford 193778
across 193677
oxford 193591
mis@@ 193493
wing 193458
example 193217
River 193094
George 192986
ous@@ 192777
187@@ 192671
although 192457
action 192419
bus 192239
Institute 192213
Go@@ 192028
movie 191922
Its 191865
New@@ 191814
int 191791
sons 191753
low@@ 191734
ura 191680
Bel@@ 191632
aries 191489
chief 191436
Du@@ 191418
stan@@ 191392
studio 191201
text 191165
eth@@ 191064
ring 191063
cup 190904
shows 190639
To 190509
closed 190475
months 190391
Review 190260
anti@@ 190238
California 190136
Ba@@ 190022
Bureau 189770
ack@@ 189712
competition 189558
cher 189462
uri@@ 189368
festival 189355
housing 189326
real 189304
Ab@@ 189299
ene 189225
lived 189140
ets 189067
saw 188999
Paul 188985
retired 188894
forces 188871
ward 188818
ts@@ 188806
dd@@ 188770
mid 188748
help 188662
primary 188482
gold 188339
province 188327
dies 188283
ese 188197
Center 188162
met 188149
1.@@ 188119
hill 187769
Office 187717
says 187647
complete 187499
dan@@ 187483
george 187415
ach 187131
aj@@ 187058
process 186808
Lo@@ 186670
market 186664
e's 186465
groups 186290
gs 185992
reported 185597
With 185592
takes 185566
ales 185532
followed 185482
ai 185474
contains 185318
base 185298
room 185279
1992 185237
bb@@ 185107
tz 184910
introduced 184869
000 184853
canada 184835
Media 184767
Fran@@ 184720
cer@@ 184705
lev@@ 184474
sem@@ 184396
ada 184310
War@@ 183819
ri 183755
First 183612
smith 183480
syn@@ 183424
Thomas 183379
ner@@ 183340
word 183251
At@@ 183217
paul 183181
indi@@ 183145
ue 183115
big 183000
brown 182955
ken 182724
mission 182503
ola 182152
biography 182104
cia 181937
1993 181799
nar@@ 181745
C. 181719
self 181618
thomas 181533
related 181495
inten@@ 181401
Council 181395
mit@@ 181372
UK 181267
upon 180941
front 180882
bed 180787
technology 180726
Sal@@ 180430
Stu@@ 180416
hit 180382
bon@@ 180218
federal 180214
attack 180192
Gi@@ 180157
atic 180115
1991 180045
rated 179899
France 179826
ax@@ 179687
hand@@ 179563
ators 179465
films 179332
writer 179109
face 179016
East 178726
management 178584
doc@@ 178520
ini@@ 178466
ette 178443
household 178304
San 178254
tered 178111
close 178045
Wi@@ 177977
phi@@ 177877
ek@@ 177806
sex 177780
staff 177686
france 177412
ental 177329
pic@@ 177196
dol@@ 177057
Cro@@ 177048
cambridge 176843
spo@@ 176710
Pla@@ 176652
gave 176523
ously 176482
ny 176302
iled 176250
Win@@ 176106
van@@ 176060
ll@@ 175929
tis 175736
chart 175659
success 175387
tives 175363
cast 174878
seat 174861
guide 174819
contract 174808
Ca@@ 174776
chan@@ 174678
ws 174657
stein 174436
artist 174407
tle 174379
bury 174329
sian 174293
strong 174230
Group 174201
gal@@ 174054
1980 173959
Por@@ 173818
Union 173808
fall 173764
sta 173725
doctor 173723
rea@@ 173498
un 173316
involved 173151
bank 173139
dor@@ 173069
culture 173041
tal 173007
Ni@@ 172819
gran@@ 172742
inger 172718
parts 172693
hin@@ 172566
Tri@@ 172349
Pu@@ 172321
studied 172076
Daily 172009
food 171945
junior 171911
buildings 171859
Church 171641
Ho@@ 171621
cul@@ 171472
revi@@ 171343
So@@ 171233
degree 170974
Some 170943
Mac@@ 170858
singer 170746
Char@@ 170734
reached 170589
Cla@@ 170527
countries 170384
ial 170380
mag@@ 170279
R. 170262
Cal@@ 169831
provided 169800
Wor@@ 169738
nation@@ 169575
box 169569
should 169546
arts 169499
stor@@ 169151
System 169147
kins 169059
run@@ 168978
japanese 168953
ella 168776
living 168752
mus@@ 168612
Japanese 168486
gue 168046
tournament 168039
runs 167982
gro@@ 167864
Ben@@ 167729
approximately 167670
ris 167636
alism 167458
double 167433
ere@@ 167427
Street 167391
child 167289
database 167245
Sha@@ 167163
associated 167127
gr@@ 167114
view 166965
sor@@ 166924
mid@@ 166891
ood 166849
civil 166843
capital 166809
dance 166684
che 166578
ently 166406
1989 166377
female 166321
cho@@ 166211
sometimes 166130
Peter 165303
peter 165300
texas 165279
collection 165274
above 165242
native 165171
ound 165167
rights 165166
theater 165149
Smith 165037
Ser@@ 164953
blo@@ 164937
mar 164808
thing 164800
ching 164778
ban 164640
med 164611
gers 164488
Royal 164413
writing 164364
lands 164261
thy 164121
ot@@ 164097
Publishing 163992
generally 163658
bea@@ 163538
pur@@ 163521
sam@@ 163486
leader 163485
student 163321
S. 163301
almost 163286
Lin@@ 163200
play@@ 163059
ame 163024
oun@@ 162982
committee 162912
bel 162892
zer 162842
Gen@@ 162808
Japan 162787
Charles 162646
start 162551
ph 162510
european 162500
A. 162474
placed 162340
pit@@ 162312
wall 162192
El@@ 162189
consi@@ 162103
yed 162103
gets 161840
charles 161783
European 161592
Air 161584
ised 161484
alized 161464
nation 161426
anda 161264
Mer@@ 161235
fe 161158
lower 161086
issue 161082
gene 160954
dge 160906
Hall 160832
hand 160591
mp@@ 160525
cross 160466
pennsylvania 160373
rela@@ 160325
practice 160271
future 160182
dson 159990
though 159926
mi 159922
famous 159843
graduated 159836
indian 159774
nature 159690
cou@@ 159527
ket 159501
ey@@ 159228
ome@@ 159208
assi@@ 159173
zing 159014
fri@@ 158700
kers 158677
ero@@ 158591
deal 158461
The@@ 158427
Central 158345
Em@@ 158343
wel@@ 158315
sia 158222
medi@@ 158087
tory 158006
Cambridge 157865
iran 157675
! 157596
roman@@ 157505
Y 157490
map 157482
spanish 157469
behind 157467
Gre@@ 157193
actor 157040
japan 156972
lor@@ 156944
Q@@ 156807
Indian 156790
campaign 156743
defeated 156737
thi@@ 156691
Spanish 156680
Ha@@ 156264
Richard 156243
wat@@ 156231
boo@@ 156165
pped 156112
rin@@ 156081
standard 156064
length 156055
hospital 156022
ji 156005
ams 155993
od 155950
commission 155933
below 155893
ends 155789
location 155745
elections 155723
Places 155709
middle 155623
soci@@ 155604
Library 155586
nom@@ 155584
aly@@ 155373
launched 155071
richard 154948
shot 154918
operations 154839
xi@@ 154807
tual 154695
Cup 154605
Germany 154596
ented 154572
King 154462
Accessed 154359
stic 154230
em 154222
ole 154176
Rel@@ 154142
fur@@ 153971
ox@@ 153966
friend 153912
mary 153887
1988 153874
mes 153856
ide 153429
too 153393
ball 153132
statistics 153019
sig@@ 152994
cover 152990
changes 152968
composed 152879
pt 152853
canadian 152839
flu@@ 152837
represented 152715
possible 152675
hen@@ 152663
remains 152635
lan 152552
comes 152542
vis@@ 152540
Canadian 152514
pin@@ 152466
Museum 152377
ung@@ 152237
ome 152206
fish 152080
flo@@ 151986
ska 151983
unit 151928
winning 151919
Post 151849
def@@ 151689
plan 151593
bay 151544
blue 151519
nov@@ 151509
duc@@ 151388
academy 151235
medical 151219
lou@@ 151078
gla@@ 150939
leading 150903
parish 150762
Iran 150627
post@@ 150527
rich 150508
anti 150488
ek 150317
tr@@ 150284
Co 150209
reviews 150147
ssi@@ 150141
fle@@ 150102
Mil@@ 150027
author 149887
micro@@ 149842
castle 149782
Kar@@ 149763
channel 149654
Rec@@ 149649
ging 149643
grade 149642
domain 149513
find 149399
China 149363
move 149340
Tu@@ 149230
lives 149223
germany 149219
Mas@@ 149197
global 149153
ond 149143
entered 149141
ming 148977
slo@@ 148962
stars 148959
regular 148948
trade 148939
bran@@ 148898
ati@@ 148894
china 148893
Ed@@ 148858
ely 148813
pas@@ 148758
tter 148724
aged 148661
tis@@ 148529
ences 148504
angeles 148450
ards 148241
mem@@ 148061
Cha@@ 148003
appears 147930
sure 147853
Del@@ 147754
sted 147712
idae 147707
movement 147636
course 147533
shar@@ 147436
poli@@ 147376
Wal@@ 147241
tations 147215
cle@@ 147214
operated 147207
source 147116
russian 147102
going 147070
Life 146925
1970 146860
resi@@ 146828
profile 146745
past 146685
bac@@ 146677
Her 146652
commercial 146595
sto@@ 146573
ela 146548
Award 146546
outside 146513
ock 146486
wn 146389
Cri@@ 146146
mur@@ 145978
03 145938
highway 145884
net 145860
legal 145845
06 145675
sum@@ 145634
kin 145424
programs 145385
bill 145330
han 145158
ining 145157
economic 145098
Film 145071
dia 144979
02 144965
D. 144934
val 144923
houses 144906
fil@@ 144845
minister 144832
money 144739
09 144701
got 144631
mental 144520
protein 144344
score 144272
60 144240
07 143965
W. 143946
traditional 143899
Da@@ 143894
ac 143883
ells 143870
professor 143869
fo@@ 143860
editor 143855
mostly 143825
Sy@@ 143632
Is@@ 143588
Top 143472
spent 143470
ita 143469
Awards 143434
clu@@ 143338
senior 143268
dictionary 143192
publication 143178
islamic 143129
Fri@@ 143119
survey 143046
brought 142946
theory 142946
chicago 142929
Islamic 142896
Football 142864
ligh@@ 142801
sport 142393
analysis 142243
1987 142186
ination 142140
ements 142131
ven 142014
decided 141996
cer 141977
Pre@@ 141880
Art 141879
Los 141847
Two 141833
bl@@ 141821
virginia 141803
ree 141748
08 141721
05 141676
trav@@ 141477
stre@@ 141312
explo@@ 141305
H. 141285
foundation 141235
fight 141087
acy 141020
sign 140990
woman 140862
pon@@ 140803
least 140784
lee 140780
airport 140761
sn@@ 140745
shi 140732
energy 140679
04 140401
President 140322
selected 140315
previously 140311
Education 140276
Army 140153
chi 140107
coast 139878
vel@@ 139851
ef 139850
interview 139790
squ@@ 139723
km 139713
conference 139643
Im@@ 139635
pl@@ 139621
gun 139546
entry 139544
consists 139430
Government 139395
engine 139385
matches 139318
ror 139305
Rom@@ 139282
Club 139145
yu@@ 139139
E. 139023
Science 138955
AR@@ 138810
hard 138798
Of 138756
feature 138720
1986 138639
numerous 138462
tac@@ 138456
manager 138377
im 138236
ae 138234
formation 138092
property 137997
fort 137940
lis@@ 137873
sho@@ 137869
far 137817
lam@@ 137797
makes 137594
Records 137499
ep 137490
ically 137443
Lan@@ 137391
pho@@ 137232
exten@@ 137128
hea@@ 137111
io 137097
tropical 137065
List 137060
raised 137046
Tur@@ 137015
ali 136961
Bal@@ 136833
dom 136776
Research 136566
provides 136506
Official 136475
ym@@ 136435
care 136214
thus 136209
vol@@ 136137
complex 136136
medal 136116
ini 136095
either 136067
ova 136012
1985 135998
coo@@ 135923
thro@@ 135890
interest 135889
radi@@ 135883
Dar@@ 135789
tel 135781
ough 135769
zes 135580
ography 135511
sister 135479
marine 135461
ace 135457
ow 135457
sac@@ 135441
higher 135425
appearance 135403
companies 135339
yl@@ 135335
Report 135332
sco@@ 135330
20@@ 135314
host 135309
competed 135295
person 135262
highest 135241
elec@@ 135210
Cu@@ 135196
township 135118
star@@ 135042
provide 135030
Far@@ 134944
bin 134924
Elec@@ 134878
issues 134861
Pennsylvania 134848
ries 134830
celeb@@ 134763
Fre@@ 134753
running 134738
adv@@ 134718
chen 134713
off@@ 134697
amember 134576
tam@@ 134519
Red 134364
anna 134343
zo@@ 134273
beginning 134186
parents 134169
Books 134144
spi@@ 133843
ania 133833
mond 133774
means 133762
3.@@ 133717
aci@@ 133674
Star 133657
ao 133618
We@@ 133535
km2 133401
Bas@@ 133374
# 133208
previous 133202
recording 133100
scored 133048
cl@@ 133040
door 132999
185@@ 132935
ash 132869
Division 132803
sea@@ 132788
Ken@@ 132711
status 132645
lia 132611
ners 132589
wins 132585
ip@@ 132463
von 132459
instead 132353
leaves 132330
tively 132184
required 132168
histor@@ 132136
San@@ 132107
itself 132092
Mag@@ 132021
jersey 131959
bom@@ 131937
sound 131658
tus 131621
bo 131613
Hor@@ 131551
Ang@@ 131492
vir@@ 131460
store 131456
musical 131418
master 131383
leg@@ 131376
ky 131342
dead 131341
nes 131341
concer@@ 131334
numbers 131314
ast@@ 131289
foreign 131254
noted 131217
bar 131190
part@@ 131043
Shi@@ 131038
ories 130968
regional 130944
finally 130886
nie 130825
Russian 130816
nic@@ 130633
ray 130617
especially 130600
var@@ 130594
Fer@@ 130568
quali@@ 130538
sk 130536
entire 130477
Ti@@ 130474
Ger@@ 130402
equ@@ 130315
activities 130265
web@@ 130241
Book 130128
fore@@ 130073
towards 130028
Great 129948
1984 129788
poly@@ 129762
iso@@ 129697
administration 129629
Most 129622
valley 129598
Pa@@ 129520
Party 129489
singles 129485
hur@@ 129434
imp@@ 129431
onom@@ 129428
sar@@ 129391
Martin 129354
ref@@ 129337
sites 129300
Mad@@ 129294
Ter@@ 129273
cultural 129264
sey 129148
digital 129123
La 129044
Bul@@ 128918
spor@@ 128880
Fac@@ 128852
grew 128802
d's 128780
L. 128688
bers 128677
Europe 128632
ew 128566
Vo@@ 128527
Road 128419
Academy 128384
heart 128339
0000 128182
Pen@@ 128109
covered 127883
friends 127873
que@@ 127850
italian 127508
disp@@ 127421
Chicago 127408
sle@@ 127380
operation 127351
sul@@ 127347
sion@@ 127179
divided 127165
access 127091
claimed 127081
grand 127077
Comm@@ 127072
Italian 126879
mainly 126871
material 126755
ria 126722
turn 126711
coming 126686
AT@@ 126676
bol@@ 126648
spring 126614
call 126606
enn@@ 126538
autom@@ 126514
trac@@ 126460
connec@@ 126406
Bir@@ 126380
Western 126358
cha@@ 126319
significant 126273
igh@@ 126256
wards 126196
tar 126181
europe 126167
tracks 126158
shing 126152
gg@@ 126121
Cur@@ 126047
minutes 126011
Dra@@ 125982
lli@@ 125941
ni 125939
cost 125880
ping 125872
Ori@@ 125823
Angeles 125771
offers 125765
Board 125756
increased 125726
encyclopedia 125635
Mat@@ 125623
tiv@@ 125545
additional 125544
cs 125502
stant 125494
ancient 125468
buried 125426
any@@ 125421
subsequently 125347
supp@@ 125327
25@@ 125314
mechan@@ 125306
Lea@@ 125275
cities 125246
mountain 125229
ky@@ 125208
inst@@ 125180
basketball 125146
personal 125091
hours 125082
individual 125073
yo@@ 124966
sets 124854
eh@@ 124666
kh@@ 124585
oil 124574
ational 124571
Texas 124560
bru@@ 124446
passed 124393
tent 124345
yle 124276
Pra@@ 124267
ago 124221
ez 124145
religious 124122
Women 124095
nat@@ 124042
code 123965
sand@@ 123961
Historical 123935
marriage 123926
Best 123879
anne 123807
cial 123801
producer 123766
adi@@ 123753
fra@@ 123702
Since 123534
broadcast 123464
Cy@@ 123370
ple 123331
Dictionary 123329
fy 123300
atory 123212
train 123160
Do@@ 123151
files 123151
your 123117
tax@@ 123100
gan 123088
emer@@ 123076
ering 123035
boy 123027
opening 123003
tan 122921
dea@@ 122902
broad@@ 122860
IN@@ 122826
US@@ 122823
male 122820
ee 122812
0.@@ 122782
Henry 122716
color 122712
ji@@ 122698
ami 122669
turned 122394
1982 122344
Ko@@ 122293
chinese 122283
ately 122228
forced 122158
eat 122092
Public 122061
ho 122059
heritage 122027
1983 122025
assembly 122022
iro 121918
borough 121897
thor@@ 121890
goes 121877
florida 121833
som@@ 121832
notes 121826
always 121820
mas@@ 121801
Island 121746
initially 121733
computer 121716
kansas 121630
vin@@ 121608
web 121525
serves 121502
Inter@@ 121501
allowed 121495
supported 121493
high@@ 121441
ast 121350
Chinese 121344
verse 121167
plants 121157
temple 121028
ste 120937
Sen@@ 120926
bin@@ 120847
dw@@ 120840
types 120815
loss 120804
G. 120775
baseball 120768
Other 120706
cases 120678
Ap@@ 120667
Guide 120610
newspaper 120511
shown 120505
plans 120494
policy 120436
security 120428
Zealand 120411
constructed 120405
acquired 120278
Ku@@ 120045
onia 120029
wa 120028
Rev@@ 120003
rates 119990
He@@ 119954
1960 119909
despite 119891
pool 119874
henry 119857
Plan@@ 119838
earned 119668
interac@@ 119661
sun 119649
search 119626
idea 119607
stations 119553
cement 119551
bishop 119484
martin 119331
pil@@ 119327
tol@@ 119300
P. 119249
youth 119221
cell 119088
north@@ 118922
bes 118903
ony 118821
ex 118805
commune 118774
forest 118762
albums 118607
Cap@@ 118584
Af@@ 118525
machine 118521
regu@@ 118470
officer 118387
Their 118351
discus@@ 118289
invol@@ 118254
ira 118161
governor 118137
jor@@ 118091
pun@@ 118071
kings 118062
jo 118020
specific 118012
sional 117960
products 117924
tically 117880
financial 117863
continu@@ 117764
sym@@ 117674
gin 117665
Sp@@ 117641
hop@@ 117551
organized 117471
standing 117469
goal 117442
sun@@ 117434
80 117380
dun@@ 117363
politics 117363
yn 117285
relationship 117273
Many 117210
elle 117094
chapter 117071
ison 117070
sev@@ 117061
My@@ 117013
executive 116927
sher@@ 116916
App@@ 116910
hun@@ 116878
command 116838
li 116820
zealand 116813
pping 116808
wol@@ 116762
taking 116723
tting 116681
eman 116562
artists 116472
Chi@@ 116441
Business 116425
evidence 116410
mine 116377
read@@ 116294
growth 116179
iner 116176
gin@@ 116052
met@@ 116028
hold 116017
problems 116013
nd 115997
campus 115948
certain 115945
Mark 115912
morning 115900
Championship 115888
hydro@@ 115840
mun@@ 115782
worth 115750
Er@@ 115719
Commission 115702
reser@@ 115690
cin@@ 115670
Cra@@ 115645
BBC 115621
anian 115605
White 115496
wea@@ 115389
survi@@ 115387
mol@@ 115247
done 115198
fol@@ 115117
officially 115097
bit@@ 115084
Hi@@ 114997
Lake 114949
thers 114861
vote 114765
According 114739
collec@@ 114717
unc@@ 114616
py@@ 114614
Ph@@ 114605
water@@ 114584
Blo@@ 114554
nas@@ 114549
bec@@ 114511
Val@@ 114493
mo 114470
bian 114465
ame@@ 114429
Cre@@ 114407
hear@@ 114392
folk 114326
month 114272
brothers 114236
rie 114169
mul@@ 114089
yers 114078
inside 114050
Africa 113974
Stra@@ 113933
illa 113911
variety 113814
35 113756
characters 113688
she@@ 113678
championships 113663
Names 113590
ounds 113544
words 113495
Hy@@ 113432
bia 113291
aster 113204
offered 113193
Online 113192
Tro@@ 113191
jer@@ 113168
wit@@ 113148
184@@ 113147
effect 113067
serving 113054
lied 113044
No 113035
stories 113028
pea@@ 113014
anth@@ 113007
cancer 112886
voc@@ 112820
AN@@ 112812
stand 112771
Ty@@ 112769
inal 112752
ari 112742
better 112740
bow@@ 112702
rather 112663
fic@@ 112637
org@@ 112577
elled 112576
Hel@@ 112385
dent 112345
aya 112088
Black 112007
dges 111970
contribu@@ 111910
IS@@ 111897
ila 111872
voice 111818
bad@@ 111806
FC 111775
Medi@@ 111752
You 111751
becomes 111726
mari@@ 111587
tial 111586
discovered 111557
ut 111517
africa 111496
red@@ 111472
lations 111440
christian 111416
arrived 111393
mig@@ 111386
parliament 111378
Christian 111269
Ev@@ 111260
dow@@ 111258
tain 111244
graduate 111203
weight 111171
Encyclopedia 111170
dre@@ 111152
1979 111066
activity 111032
iling 111013
si 110950
lus 110905
ain 110865
Ara@@ 110841
burn 110804
kil@@ 110788
dr 110715
va@@ 110639
terms 110584
o'@@ 110566
fast 110538
captain 110532
renamed 110498
fir@@ 110476
' 110456
sides 110439
recent 110435
ov 110415
Cas@@ 110306
camp 110231
anu@@ 110224
nearby 110216
honor 110190
paper 110158
ico 110074
flight 110071
leaving 109998
designated 109975
rules 109947
multiple 109936
paris 109903
treatment 109859
goals 109851
fun@@ 109829
literature 109823
software 109790
1981 109741
dark 109718
prote@@ 109690
mation 109554
dates 109497
decision 109488
hockey 109389
caused 109387
winner 109356
dian 109249
metal 109196
surface 109157
oods 109149
victory 109131
Biography 109126
mani@@ 109076
carolina 109067
bil@@ 108944
Paris 108942
Ireland 108926
dale 108926
Ta@@ 108918
give 108899
ogra@@ 108870
promoted 108858
cus 108852
main@@ 108764
ills 108752
fal@@ 108735
situated 108731
longer 108725
tia 108713
ens@@ 108695
weeks 108691
continues 108664
pul@@ 108656
tower 108611
Pan@@ 108566
cut 108474
winter 108464
Gro@@ 108353
gas 108339
agu@@ 108337
phy@@ 108317
tom 108283
Sil@@ 108263
hn 108244
versus 108241
pre 108182
cell@@ 108165
rey 108153
t's 108106
pro 108100
Bor@@ 108095
Survey 107929
Ran@@ 107919
tree 107860
serve 107857
fred 107813
head@@ 107811
ull 107755
rier 107617
oph@@ 107616
nearly 107592
Year 107536
primarily 107529
stadium 107515
Tor@@ 107496
70 107492
speed 107484
kingdom 107481
er's 107426
reli@@ 107354
ute 107252
overall 107236
ech@@ 107220
ans@@ 107203
Mary 107114
fron@@ 107106
settlement 106958
32 106957
Whi@@ 106941
gate 106930
effects 106913
Law 106880
villages 106862
label 106831
drama 106788
Day 106754
say 106749
loo@@ 106706
Lab@@ 106680
south@@ 106680
experience 106675
fel@@ 106655
ona 106584
Hill 106553
thu@@ 106550
dings 106513
dar 106501
heavy 106434
gus 106400
engineering 106372
mayor 106335
alls 106329
mouth 106287
transport 106257
Radio 106244
presented 106236
ye 106235
1978 106212
arri@@ 106151
try 106149
bir@@ 106135
thought 106129
quality 106113
dence 106110
tho@@ 106084
helped 106072
leave 106005
appear 105967
mont 105942
dium 105923
academic 105881
cause 105824
sign@@ 105695
aker 105657
african 105653
struction 105642
ireland 105632
Brown 105616
back@@ 105610
residents 105531
champion 105501
failed 105486
majority 105477
Sur@@ 105397
ditionally 105380
prior 105373
with@@ 105365
Bre@@ 105276
African 105269
begins 105219
lau@@ 105117
dif@@ 105086
fec@@ 104976
ces@@ 104951
destroyed 104936
referred 104823
cated 104792
yan 104783
tories 104779
Sec@@ 104778
alists 104763
hour 104730
agency 104709
dated 104708
Court 104686
format 104662
90 104651
note 104591
oes 104564
ima@@ 104394
trial 104366
Ham@@ 104295
basic 104260
reference 104090
Statistics 104054
Sports 104031
racing 104023
Population 104015
mixed 104015
hot 103986
ester 103863
24@@ 103852
nell 103804
las 103794
direct 103787
ids 103765
tra 103759
lian 103709
girl 103647
disease 103641
fer 103500
entary 103435
ints 103397
observ@@ 103385
break 103359
Is 103343
zu@@ 103334
look 103323
termin@@ 103320
mexico 103319
urban 103262
jes@@ 103258
Lee 103214
eding 103167
mach@@ 103158
brea@@ 103148
participated 103135
rugby 103034
proce@@ 102992
eve 102989
fully 102926
cars 102838
stop 102791
organ@@ 102733
dist@@ 102727
dered 102710
separate 102696
1976 102676
ation@@ 102638
Hon@@ 102620
particularly 102590
issued 102574
silver 102525
need 102507
oper@@ 102447
oly@@ 102445
internet 102430
Games 102411
geographic 102316
jan 102305
seasons 102285
troops 102250
bio@@ 102243
bell 102183
USA 102130
inhabitants 102072
tag@@ 102070
wan 101962
swe@@ 101925
managed 101910
positive 101804
jan@@ 101795
cent@@ 101772
shor@@ 101772
oma 101754
candidate 101708
actress 101649
tery 101642
dam@@ 101623
incorporates 101567
III 101508
pa 101497
sters 101448
Den@@ 101420
lights 101394
rural 101379
pass 101359
Res@@ 101288
beli@@ 101231
gives 101206
conduc@@ 101176
remaining 101162
jac@@ 101145
boston 101062
corporation 101014
carried 101011
secondary 100997
yl 100979
join 100930
navy 100782
pper 100743
aired 100673
kir@@ 100666
tail 100647
prize 100632
earlier 100623
levels 100623
michigan 100619
emp@@ 100559
pes 100551
Time 100506
That 100485
lla 100455
languages 100454
Lar@@ 100443
quickly 100437
1974 100397
elling 100396
ota 100360
let@@ 100291
wer 100284
Ob@@ 100282
ohio 100261
minor 100221
ending 100199
1977 100134
winners 100069
yet 100016
prison 99985
1975 99981
nin@@ 99946
While 99903
ku 99882
meeting 99860
Festival 99848
compu@@ 99846
finals 99804
birth 99802
function 99778
Te@@ 99772
resources 99757
initi@@ 99694
ght 99692
kan@@ 99676
je@@ 99661
1972 99653
Arch@@ 99614
larger 99612
rich@@ 99610
con 99594
bli@@ 99471
struc@@ 99467
ado 99416
phone 99407
au 99405
upper 99369
dou@@ 99368
sha 99354
already 99312
evol@@ 99273
secretary 99240
massachusetts 99235
lit@@ 99217
Ban@@ 99112
nit@@ 99101
fro@@ 99073
chairman 99028
Hea@@ 98969
households 98926
pur 98921
teacher 98912
roll 98898
atten@@ 98854
Joseph 98757
respon@@ 98689
women's 98639
develop@@ 98606
Rea@@ 98574
incorporated 98537
Magazine 98519
dents 98502
stated 98497
Gal@@ 98442
Met@@ 98437
stream 98389
extended 98352
lot 98327
core 98312
cry@@ 98298
green@@ 98295
Des@@ 98290
physical 98270
down@@ 98248
border 98241
Network 98223
Oc@@ 98218
1950 98195
quar@@ 98183
succeeded 98179
tain@@ 98170
una 98158
law@@ 98091
publications 98076
33 98054
Cat@@ 98014
batt@@ 98008
Ci@@ 98007
liber@@ 97953
labor 97937
positions 97929
Stan@@ 97916
islands 97876
physi@@ 97869
becoming 97845
hotel 97797
Mexico 97736
tric 97734
inv@@ 97708
lers 97684
1945 97613
avi@@ 97598
vin 97588
firm 97583
pop 97525
crow@@ 97517
assistant 97455
ural 97425
bit 97416
fighting 97414
mentioned 97403
ann 97381
26@@ 97351
sue 97329
cells 97207
workers 97192
crew 97077
vers 97064
husband 97026
But 97016
starting 96991
visi@@ 96989
pair 96988
ze@@ 96935
Committee 96934
mal 96925
hosted 96900
gained 96880
create 96841
Station 96840
sat@@ 96795
aling 96791
mir@@ 96785
recently 96730
log@@ 96708
purchased 96700
Air@@ 96623
Man 96602
vation 96578
spar@@ 96565
actions 96564
gun@@ 96527
whom 96440
Force 96408
top@@ 96383
commonly 96379
ece 96366
highly 96273
19@@ 96262
hag@@ 96226
Green 96210
Vic@@ 96193
rison 96156
Mus@@ 96134
subject 96086
naval 96077
sy 96048
dedicated 95983
pag@@ 95967
meet 95936
stat@@ 95913
And 95864
branch 95845
appearances 95839
Wh@@ 95828
bene@@ 95818
transferred 95810
argu@@ 95797
reas@@ 95796
tton 95711
wri@@ 95685
Dun@@ 95606
rep@@ 95588
irish 95575
May@@ 95507
une 95487
amo@@ 95480
scale 95471
sher 95462
pap@@ 95391
Irish 95388
eas@@ 95357
climate 95342
non@@ 95315
joseph 95268
F. 95265
gor@@ 95244
36 95207
PS@@ 95206
Volume 95178
models 95121
cks 95090
Arts 95083
ram 95083
billion 95081
projects 95078
boys 95050
publi@@ 95028
hat@@ 95015
roll@@ 95008
conver@@ 94999
pel@@ 94977
Sing@@ 94970
bi 94878
scene 94874
themselves 94786
black@@ 94763
Fu@@ 94751
euro@@ 94741
eller 94661
alo@@ 94655
tero@@ 94649
tax 94630
Coun@@ 94593
increase 94591
add@@ 94584
tha 94574
estate 94542
holds 94492
AC@@ 94433
ock@@ 94412
congress 94403
founder 94349
estimated 94347
ques 94330
jam@@ 94290
inian 94107
sales 94104
Series 94030
job 94020
captured 94018
hum@@ 94018
contemporary 93919
immediately 93914
1971 93853
typically 93852
1973 93845
eld 93787
len 93787
bour@@ 93754
alty 93735
o's 93732
Ag@@ 93728
Wat@@ 93722
constitu@@ 93712
ears 93627
ima 93627
produce 93627
wings 93615
gar 93555
Bla@@ 93505
ES@@ 93416
sli@@ 93400
roman 93396
headquarters 93380
alia 93323
stock 93249
200 93232
comman@@ 93175
Squ@@ 93173
vision 93163
dly 93161
pounds 93158
dru@@ 93082
ig 93079
tains 93072
chron@@ 93031
haw@@ 92983
ille 92938
influence 92936
boat 92896
stro@@ 92895
broadcasting 92866
moth 92839
dd 92830
rick 92818
Ka@@ 92781
critical 92758
clar@@ 92754
taught 92740
nea@@ 92711
posed 92708
ular 92705
Later 92703
Both 92691
advanced 92659
rd 92632
yard 92607
response 92560
therefore 92536
ben 92526
architecture 92507
Fa@@ 92486
fair 92485
ols 92482
storm 92458
38 92375
timate 92352
Species 92298
dad 92234
clear 92221
Gri@@ 92209
ok 92168
greg@@ 92163
37 92154
Pres@@ 92152
BC 92127
tica 92126
generation 92090
Federal 92063
shall 92017
electric 92016
sively 92013
facilities 91972
Ala@@ 91893
sor 91859
vention 91855
product 91833
aul@@ 91816
Rol@@ 91805
bing 91752
soft 91727
racy 91717
ession 91712
provi@@ 91683
print 91676
entertainment 91667
Virginia 91580
Ram@@ 91568
75 91566
attrac@@ 91539
weekly 91522
believed 91514
oldest 91502
poor 91482
capacity 91459
nish 91419
sources 91402
true 91396
ever@@ 91393
Tru@@ 91374
ae@@ 91352
solo 91350
illinois 91340
districts 91327
Dec@@ 91279
gh 91249
tz@@ 91208
inte@@ 91206
removed 91189
work@@ 91189
particular 91145
polish 91143
girls 91130
king@@ 91094
administrative 91071
directly 91066
fact 91028
recognized 91025
signs 91025
fiction 91018
widely 90989
justice 90980
critics 90978
tries 90969
ads 90917
travel 90904
views 90899
soldiers 90853
Oper@@ 90811
reading 90796
continue 90780
moving 90777
cle 90731
rule 90679
1968 90663
Jones 90647
fell 90631
ora 90589
rock@@ 90562
reflec@@ 90556
notable 90495
ury 90463
ric 90404
politician 90403
dt 90386
nett 90382
posi@@ 90372
exper@@ 90359
Roman 90355
34 90336
AS@@ 90283
Edward 90223
Foundation 90189
mad@@ 90181
sal 90179
towns 90162
rup@@ 90161
Reg@@ 90135
shop 90127
Big 90113
Second 90106
leton 90091
blood 90058
method 89998
long@@ 89964
bau@@ 89943
ress 89888
alization 89884
wrestling 89866
problem 89864
d'@@ 89818
Who 89814
prin@@ 89813
att@@ 89811
details 89805
port@@ 89780
su 89744
comedy 89740
path@@ 89735
box@@ 89678
conditions 89660
Geographic 89639
domin@@ 89624
responsible 89591
assigned 89588
tou@@ 89585
catholic 89562
revol@@ 89545
older 89496
lying 89494
dal@@ 89467
norwegian 89462
geological 89461
farm 89412
prise 89411
fields 89399
revealed 89373
acting 89371
frey 89368
threatened 89346
acute 89333
falls 89330
istic 89318
ou 89285
edward 89279
Gol@@ 89269
allow 89255
bili@@ 89226
unknown 89127
ert 89104
Don@@ 89102
arms 89087
gon@@ 89078
lic 89060
fes@@ 89045
Pho@@ 89014
sing@@ 89011
beach 88975
bab@@ 88961
Sydney 88951
andy 88919
Grand 88882
Polish 88878
Ga@@ 88830
scott 88827
rail@@ 88790
reports 88780
rail 88773
Bay 88744
Tran@@ 88724
formerly 88717
environment 88694
minus 88650
je 88609
Z 88608
dal 88607
Hun@@ 88574
kes@@ 88554
Jersey 88527
roads 88480
charts 88472
1969 88454
ide@@ 88446
titled 88445
ook 88433
dig@@ 88412
immig@@ 88382
refer@@ 88355
Han@@ 88297
ditions 88295
hem@@ 88290
Ren@@ 88277
episodes 88233
Lou@@ 88176
direc@@ 88172
meaning 88167
jones 88125
owner 88125
serv@@ 88113
distribution 88105
whole 88087
Saint 88077
iz@@ 88074
form@@ 88060
arrested 87984
Catholic 87961
orders 87961
chester 87934
build 87919
dam 87913
Sar@@ 87909
Norwegian 87907
fellow 87905
Results 87890
floor 87879
rose 87869
told 87829
damage 87815
Scott 87780
4.@@ 87757
fly 87712
kri@@ 87689
tells 87651
About 87625
forward 87610
45 87592
ministry 87544
approach 87470
sydney 87454
introduction 87446
Mid@@ 87422
Navy 87412
ero 87405
peace 87397
value 87387
Produc@@ 87378
Sol@@ 87348
statistical 87345
deep 87221
elements 87209
exp@@ 87181
foot 87144
drive 87115
tec@@ 87113
tes@@ 87105
ul 87098
gy@@ 87083
Pol@@ 86987
marks 86954
nec@@ 86936
proc@@ 86936
detec@@ 86932
transportation 86927
mass 86922
We 86910
origin 86892
settled 86863
ily 86853
Dom@@ 86841
Team 86839
39 86831
Williams 86827
authority 86806
probably 86805
Wales 86802
Pop@@ 86798
accep@@ 86659
horse 86654
herald 86603
eral 86600
Boston 86573
lord 86551
Ven@@ 86514
sir 86510
za@@ 86451
ei@@ 86428
ple@@ 86398
agent 86383
wood@@ 86346
Fe@@ 86344
dic 86337
couple 86325
bles 86307
claim 86302
Florida 86283
Ke@@ 86270
classes 86154
proposed 86147
Chris 86133
wales 86133
pr@@ 86049
allen 86029
mail 86020
iron 86001
mit 85970
industrial 85946
Wol@@ 85944
ool 85936
remain 85896
respec@@ 85890
fair@@ 85821
Liber@@ 85812
ye@@ 85804
chris 85789
read 85719
officers 85715
gan@@ 85675
Daniel 85636
charge 85624
displa@@ 85615
nes@@ 85586
trou@@ 85572
asked 85549
Congress 85538
Herald 85503
cc@@ 85477
T. 85464
eing 85462
irs 85459
effective 85390
Pap@@ 85365
Dev@@ 85339
learning 85318
Map 85317
Mel@@ 85221
Ki@@ 85220
needed 85195
figure 85163
matic 85157
kal@@ 85134
rise 85112
card 85099
tivity 85093
facility 85071
chu@@ 84955
daniel 84937
may@@ 84928
nominated 84875
Mul@@ 84838
offer 84827
isa 84765
expanded 84760
ides 84753
suffered 84740
ograph@@ 84723
gram@@ 84694
bad 84693
Edi@@ 84658
smaller 84631
expected 84578
1967 84570
Mis@@ 84560
returns 84558
glo@@ 84541
scientific 84490
prominent 84484
oul@@ 84464
consu@@ 84417
initial 84375
ault 84374
ful@@ 84348
kets 84347
williams 84329
Na@@ 84314
Num@@ 84277
adopted 84276
Bill 84265
educated 84257
flor@@ 84257
clubs 84252
whi@@ 84205
Univer@@ 84183
likely 84177
Andrew 84156
mission@@ 84132
ordered 84118
dg@@ 84097
ious 84016
Old 83975
birds 83900
tour@@ 83898
tant 83891
focus 83888
ews 83884
brand 83877
principal 83870
olas 83852
Toronto 83851
wanted 83792
tex@@ 83766
peri@@ 83757
distance 83736
except 83715
rice 83710
safety 83653
Nu@@ 83639
guard 83623
Doc@@ 83621
Bea@@ 83610
fit 83600
Phi@@ 83567
Johnson 83557
Northern 83499
mes@@ 83474
dynam@@ 83419
29@@ 83405
platform 83362
jus@@ 83356
Michigan 83341
Sub@@ 83322
aria 83285
tural 83279
growing 83274
greek 83271
suit 83252
know 83220
yellow 83218
legi@@ 83191
Jes@@ 83174
Town 83151
oms 83131
normal 83128
rain 83121
lim 83100
bird 83097
mon 83095
frequently 83088
expla@@ 82966
Jac@@ 82939
fame 82939
operating 82936
russia 82925
Corporation 82905
fare 82884
nia 82861
Greek 82842
covers 82799
earth 82765
territory 82730
reserve 82712
awa 82698
shortly 82671
Tal@@ 82670
28@@ 82654
Database 82645
block 82617
whose 82613
vel 82587
empire 82582
concert 82576
zone 82576
split 82573
Wel@@ 82539
amount 82493
arc@@ 82464
trains 82449
defense 82420
Pat@@ 82388
Development 82372
vice 82368
declared 82366
Sam@@ 82355
ua 82332
tie 82267
semi 82262
promis@@ 82248
UN@@ 82235
copies 82177
nuclear 82175
Louis 82161
toronto 82118
Act 82112
phy 82102
conservation 82090
marked 82073
mister 82024
guitar 82012
accepted 81992
chen@@ 81982
Tom 81961
gil@@ 81939
Gla@@ 81920
jum@@ 81837
journ@@ 81811
alan 81809
ski@@ 81775
IC@@ 81774
tile 81756
votes 81722
paid 81710
louis 81692
reach 81666
stam@@ 81652
compar@@ 81649
sson 81583
titles 81580
Hal@@ 81566
finds 81553
ered 81548
audi@@ 81542
manag@@ 81540
zi 81506
ranked 81482
Heritage 81481
andrew 81480
confirmed 81402
circu@@ 81391
Another 81370
Project 81337
enz@@ 81321
utionary 81286
tel@@ 81278
ternal 81276
cemetery 81225
rers 81206
Hen@@ 81171
francisco 81161
equipment 81150
ap 81148
letters 81132
tos 81118
organizations 81114
viol@@ 81096
ket@@ 81089
ork 81078
Jer@@ 81074
twice 81069
jack 81035
iver@@ 81030
Centre 81017
medicine 81001
Pas@@ 80995
ate@@ 80992
claims 80985
planned 80907
connected 80897
conclu@@ 80870
affairs 80768
jar@@ 80765
Bran@@ 80762
chro@@ 80743
printed 80739
defined 80699
communities 80697
cies 80693
acts 80648
younger 80647
keep 80634
Geological 80622
rooms 80608
Today 80599
soli@@ 80583
multi@@ 80580
Southern 80538
ral 80525
tian 80522
content 80508
leadership 80507
municipal 80494
Def@@ 80414
Valley 80414
igh 80392
manufac@@ 80383
People 80376
impact 80337
Each 80335
mm 80288
piece 80285
cep@@ 80248
Young 80231
sup@@ 80218
ouse 80190
Stephen 80184
zar@@ 80141
Ly@@ 80125
K. 80069
concept 80063
ime 80063
instru@@ 80014
moder@@ 80000
Fil@@ 79997
aka 79966
regi@@ 79961
traffic 79937
entation 79924
johnson 79881
draft 79880
relations 79824
aga 79814
exam@@ 79801
alli@@ 79797
eva 79759
Summer 79758
gon 79756
arti@@ 79719
asia 79718
dutch 79692
rian 79676
drug 79669
ports 79655
ades 79654
image 79654
animals 79651
judge 79591
Kingdom 79556
Dutch 79546
mates 79541
Studies 79533
nor 79529
leaders 79492
employed 79489
har 79487
vil@@ 79470
Also 79465
ble@@ 79456
technical 79453
versions 79422
bal 79410
pos@@ 79400
mans 79399
onic 79386
27@@ 79347
challeng@@ 79345
Chart 79340
garden 79339
beat 79332
allows 79331
num@@ 79316
conducted 79308
opera 79304
organ 79291
lion 79251
omer@@ 79243
RA@@ 79241
chemical 79230
basis 79208
ea 79201
yards 79179
things 79140
Rock 79135
If 79123
arly 79121
Vol@@ 79103
ort 79084
Land 79044
B. 79042
fan 79022
outh 79020
ux 78976
Three 78947
bou@@ 78947
promo@@ 78940
lum 78919
federation 78829
ami@@ 78730
shel@@ 78723
Cli@@ 78667
ographical 78659
brow@@ 78615
lyn@@ 78612
swit@@ 78611
investig@@ 78606
latter 78605
ée 78550
ises 78545
stephen 78542
High@@ 78509
mill 78440
trees 78431
lock 78420
tist 78417
nations 78379
pay 78369
Assembly 78317
teaching 78309
mate 78289
scrip@@ 78283
Mike 78279
lane 78275
stration 78271
memory 78231
mike 78219
1964 78213
footballer 78205
1965 78191
sses 78175
sett@@ 78155
rely 78153
photograph@@ 78132
roles 78102
tim 78101
cycle 78095
translated 78071
500 78044
1966 78025
Kn@@ 78003
races 77986
frank 77981
tch 77968
unique 77935
tun@@ 77933
oted 77929
stal 77914
largely 77894
patri@@ 77882
5.@@ 77876
wart 77868
windows 77850
pacific 77840
jewish 77818
My 77800
seats 77792
kel@@ 77784
Green@@ 77775
Frank 77734
Railway 77707
creek 77689
ited 77684
bought 77628
Mur@@ 77606
occurs 77606
individuals 77596
CD 77577
tici@@ 77566
georgia 77544
knowledge 77544
El 77541
Jewish 77539
Yu@@ 77526
colum@@ 77489
contrac@@ 77457
passes 77453
eta 77410
North@@ 77317
educational 77309
cour@@ 77305
attacks 77240
jazz 77238
kon@@ 77228
ER@@ 77201
antly 77161
comple@@ 77131
occurred 77125
tte 77124
view@@ 77124
dio 77100
prov@@ 77094
commander 77079
ele 77071
rank 77058
techn@@ 77032
tted 77028
completely 77019
Pacific 77015
CO@@ 77009
brian 76996
applied 76977
fas@@ 76967
painting 76923
poss@@ 76907
Health 76895
memorial 76892
Britain 76784
glass 76765
worldwide 76744
Dor@@ 76724
archive 76710
columbia 76687
sab@@ 76646
letter 76598
eth 76523
Taylor 76505
tribu@@ 76497
analy@@ 76483
tioned 76475
eling 76470
gover@@ 76469
1940 76418
sity 76400
Parliament 76385
een 76382
aceae 76377
sic 76376
tier 76363
ean 76346
aki 76311
enjo@@ 76264
applications 76261
chec@@ 76238
share 76222
lets 76209
ment@@ 76201
fying 76193
De 76184
hip 76172
More 76171
factory 76122
alternative 76118
chap@@ 76113
edited 76108
kill 76061
sel 76060
Ohio 75996
Minister 75961
ored 75939
stand@@ 75934
an's 75932
spr@@ 75828
Dem@@ 75799
sna@@ 75783
cham@@ 75782
Al 75780
adap@@ 75774
super 75735
Data 75731
gary 75694
sche 75693
fur 75637
sau@@ 75631
articles 75618
tas@@ 75609
implem@@ 75604
cent 75589
greater 75589
kov@@ 75583
screen 75580
1930 75571
ris@@ 75569
ingham 75567
starts 75542
tradition 75534
feder@@ 75529
Italy 75522
cher@@ 75522
tele@@ 75514
Mol@@ 75507
dden 75502
kra@@ 75481
ab 75438
Ker@@ 75436
queen 75422
cab@@ 75420
identi@@ 75413
Love 75409
Highway 75405
thir@@ 75400
attempt 75376
economy 75325
Mari@@ 75314
methods 75297
plo@@ 75270
figures 75245
follows 75217
eal@@ 75212
squad 75199
Bow@@ 75178
Pic@@ 75138
gian 75118
produc@@ 75110
jec@@ 75087
application 75067
soccer 75056
abri@@ 75040
How 75039
bun@@ 75010
concent@@ 75010
environmental 74978
prec@@ 74947
band@@ 74939
open@@ 74936
dry 74901
cau@@ 74892
preser@@ 74827
enny 74740
Fla@@ 74728
Pit@@ 74726
weather 74719
Global 74700
kept 74654
hood 74635
ight@@ 74597
Mit@@ 74594
Sir 74574
Trans@@ 74559
tially 74553
link 74546
Carolina 74542
price 74538
shops 74518
archae@@ 74498
enter@@ 74474
mr 74435
Tam@@ 74415
lum@@ 74415
Game 74390
phil@@ 74385
drew 74373
sciences 74366
interpre@@ 74353
sburg 74343
decor@@ 74321
calls 74318
credited 74311
guest 74292
agreed 74284
hai 74281
chor@@ 74265
Cer@@ 74240
cricket 74237
factor 74162
secret 74154
asi@@ 74136
alter@@ 74135
materials 74100
why 74078
attention 74069
Mun@@ 74052
Championships 74037
taylor 74012
ula@@ 73974
reduc@@ 73964
sexual 73932
italy 73886
fans 73882
Stor@@ 73868
hits 73812
documentary 73796
amed 73777
Gir@@ 73743
receive 73743
vac@@ 73735
med@@ 73728
urs 73702
protection 73696
ource 73686
difficult 73683
6.@@ 73673
mont@@ 73667
Super@@ 73624
broke 73622
biology 73619
Ul@@ 73600
launch 73600
potential 73596
millimeters 73569
murder 73565
motor@@ 73558
successfully 73554
As@@ 73540
fine 73539
properties 73519
gain 73518
Home 73482
Ur@@ 73430
destro@@ 73418
BA 73406
funding 73383
mom@@ 73368
residential 73364
turns 73343
ution 73337
Columbia 73306
comic 73306
prac@@ 73298
ett 73285
consul@@ 73257
1920 73224
tta 73211
ario 73209
ster@@ 73178
proto@@ 73160
ele@@ 73132
theme 73130
retirement 73121
gie 73113
row@@ 73112
jim 73063
Victoria 73052
onian 73008
CE@@ 72988
sz@@ 72987
enough 72982
agreement 72979
sten@@ 72977
Eu@@ 72948
auto@@ 72930
Sim@@ 72926
visit 72925
adult 72922
Star@@ 72908
What 72880
pressure 72819
rober@@ 72772
Cel@@ 72764
faces 72754
Jack 72749
tten 72746
Jim 72741
Mich@@ 72732
lack 72714
fee 72713
Although 72694
lov@@ 72654
ense 72642
merged 72630
agre@@ 72620
sou@@ 72568
apar@@ 72567
conven@@ 72542
identified 72532
survived 72523
enna 72511
aging 72500
olympics 72500
trust 72469
aqu@@ 72419
set@@ 72417
kam@@ 72412
regiment 72409
augh@@ 72383
god 72375
berlin 72352
exchange 72313
achieved 72307
seg@@ 72269
Ali@@ 72205
Olympics 72175
it's 72148
combat 72134
See 72124
religion 72119
Spi@@ 72106
animal 72057
42 72046
know@@ 72027
prince 72019
Wilson 72003
injury 72003
A.@@ 71999
dor 71987
partner 71975
cir@@ 71954
bach 71941
capita 71882
indiana 71872
rating 71865
Internet 71853
occupied 71847
dley 71846
faced 71844
Land@@ 71810
depen@@ 71797
risk 71789
surrounding 71747
simple 71726
ority 71709
classical 71662
philadelphia 71660
granted 71643
beyond 71632
Asia 71627
psych@@ 71593
Line 71560
planning 71550
classic 71524
steel 71479
lyrics 71427
She@@ 71425
neighborhood 71418
visited 71411
spac@@ 71409
Men 71360
victoria 71356
patients 71329
depar@@ 71324
gaz@@ 71319
reduced 71317
crime 71310
iting 71294
West@@ 71287
Hin@@ 71264
Rober@@ 71260
tell@@ 71235
tedly 71222
ped 71219
progres@@ 71208
rel 71194
anger 71191
selling 71180
spon@@ 71149
fering 71088
ized 71079
west@@ 71069
repor@@ 71052
senate 71019
nard 71007
pilot 71005
Community 70998
efforts 70961
ots 70953
sector 70953
parties 70937
1962 70925
nur@@ 70908
plane 70883
l'@@ 70870
ghts 70856
South@@ 70805
donald 70786
swedish 70770
Tre@@ 70759
eme@@ 70753
sch 70707
nan@@ 70692
regions 70672
fleet 70669
edge 70657
Francisco 70655
vinc@@ 70649
fted 70636
laws 70619
therine 70565
rare 70562
7.@@ 70561
mobile 70553
ops 70527
esses 70522
1963 70435
descri@@ 70404
challenge 70387
Civil 70382
leads 70375
torate 70342
Sto@@ 70319
Sum@@ 70303
inations 70279
transi@@ 70277
Queen 70265
Swedish 70237
ledge 70217
exhibi@@ 70215
Wri@@ 70214
ello 70178
iss 70177
kind 70147
chosen 70117
show@@ 70115
hibi@@ 70107
ati 70094
dropped 70093
Record 70070
wan@@ 70069
competi@@ 70040
has@@ 70031
care@@ 70022
akes 70006
smo@@ 69967
eighties 69924
stay 69924
squadron 69898
sequence 69892
golden 69890
ames 69886
tried 69814
Tom@@ 69776
tum 69771
RE@@ 69768
essed 69756
sequ@@ 69748
Following 69743
alone 69706
operates 69700
habitat 69683
purpose 69626
vol 69532
simp@@ 69515
scienti@@ 69497
prime 69479
ital 69478
craft 69456
fts 69450
enter 69447
infec@@ 69434
attacked 69426
maryland 69409
Province 69380
poetry 69372
qualified 69354
depic@@ 69339
olympic 69333
mount 69319
ower 69318
direction 69309
kar 69307
Q 69284
jean 69249
britain 69188
wes@@ 69147
das 69105
tch@@ 69102
Ear@@ 69049
drawn 69034
wilson 69030
enting 68975
wind 68964
writers 68963
offices 68956
follow 68926
Shar@@ 68922
deb@@ 68922
Conference 68910
Social 68884
institu@@ 68884
spe@@ 68877
ians 68869
behavior 68863
Scotland 68862
them@@ 68858
Os@@ 68855
pages 68823
approved 68814
Sus@@ 68802
ried 68785
heim 68783
phic 68782
pus 68766
dog 68765
ik@@ 68763
aware 68748
ret 68738
sunday 68699
gol@@ 68695
ights 68691
Alexander 68671
oregon 68619
converted 68609
Sat@@ 68601
govern@@ 68584
grant 68577
program@@ 68561
greatest 68529
utili@@ 68526
arm@@ 68523
asian 68504
fought 68502
Sk@@ 68499
ny@@ 68484
eye 68476
dos 68466
minnesota 68430
65 68420
47 68404
loaded 68395
inspired 68347
ud 68346
Olympic 68330
public@@ 68329
whe@@ 68317
Clar@@ 68281
humans 68280
residing 68273
esti@@ 68252
wo@@ 68246
communications 68228
41 68212
til@@ 68207
arm 68201
literary 68170
etnam 68122
Blue 68118
might 68118
profes@@ 68109
augu@@ 68104
Eli@@ 68081
john@@ 68063
hay@@ 68059
48 68053
Tour 68051
ral@@ 68038
actually 68037
bered 68012
Battle 68002
jr 67998
mers 67969
ras 67951
Russia 67927
ghton 67927
combined 67898
zen 67876
less@@ 67873
nan 67870
wild 67870
Dou@@ 67868
Marine 67862
independence 67862
account 67797
minis@@ 67796
Annual 67792
nomination 67787
Little 67763
alpha 67679
cong@@ 67675
pack@@ 67672
electronic 67649
sible 67643
giving 67588
stands 67583
Prin@@ 67574
Steve 67567
xon 67565
1961 67533
ound@@ 67526
structures 67510
steve 67507
encoura@@ 67469
flow@@ 67464
Sig@@ 67461
begin 67449
Gil@@ 67442
Coo@@ 67432
alongside 67378
Ep@@ 67359
gent@@ 67349
stood 67345
J.@@ 67304
55 67298
obtained 67296
ease 67272
angel@@ 67267
correc@@ 67261
wisconsin 67247
loan 67244
ER 67235
philosophy 67235
compe@@ 67232
ev 67179
Up 67175
performances 67174
ori 67163
astr@@ 67142
joint 67137
eland 67125
BS 67124
Simon 67100
ign 67097
exist 67091
achiev@@ 67088
eric@@ 67066
hung@@ 67054
erre 67052
Country 67044
sex@@ 67025
alexander 67012
relatively 66977
8.@@ 66974
ases 66970
secu@@ 66942
garet 66907
hong 66903
choice 66894
torial 66894
CA@@ 66873
cker 66861
Spain 66847
aver@@ 66847
talk 66826
evolution 66800
thin@@ 66781
hands 66765
recomm@@ 66753
Wa@@ 66744
democratic 66734
bang@@ 66727
consisted 66727
agricultural 66724
iler 66712
alum@@ 66674
85 66652
gender 66649
commissioned 66637
soviet 66630
eni@@ 66615
Bank 66614
camp@@ 66606
expansion 66576
pau@@ 66576
bach@@ 66574
illy 66568
peak 66558
ices 66557
aid 66533
review@@ 66477
bey 66469
emo@@ 66453
forests 66431
performing 66426
44 66425
Over@@ 66425
shore 66417
ampton 66414
64 66410
abu@@ 66405
interior 66394
phase 66375
featuring 66364
simon 66359
spiri@@ 66351
Lev@@ 66313
din 66311
revolution 66305
gentina 66284
kat@@ 66269
efs 66254
ologist 66247
Uni@@ 66246
mir 66239
scotland 66238
Billboard 66233
expen@@ 66223
Israel 66218
agriculture 66215
gallery 66190
resigned 66160
Jan@@ 66155
starred 66154
origin@@ 66144
intended 66129
Berlin 66109
kid@@ 66088
Cru@@ 66076
eric 66066
evening 66053
Hur@@ 66018
ira@@ 66008
exclu@@ 66002
railroad 65968
but@@ 65933
rece@@ 65906
kan 65903
patrick 65873
key@@ 65843
OR@@ 65787
abandoned 65778
dish 65749
treal 65741
champions 65740
heads 65738
escape 65709
announ@@ 65684
seconds 65673
cles 65666
you@@ 65662
lay 65658
dest@@ 65653
belong@@ 65652
ula 65639
Soviet 65612
ech 65592
rant 65586
neighbor@@ 65546
Bat@@ 65539
zer@@ 65506
cha 65484
IT@@ 65469
www.@@ 65465
priv@@ 65459
lement 65455
extensive 65419
advis@@ 65390
perform 65377
elizabeth 65344
ryan 65343
cht 65326
clin@@ 65316
coach@@ 65275
Der@@ 65269
lun@@ 65245
Profile 65242
wy@@ 65237
stable 65235
oni 65223
count 65211
9.@@ 65210
Tar@@ 65208
characteri@@ 65208
perio@@ 65198
43 65197
affec@@ 65164
scho@@ 65160
vehicles 65137
tto 65112
northwest 65101
deta@@ 65058
Ministry 65054
Hop@@ 65051
appro@@ 65045
billboard 65030
user 65026
translation 65022
Over 65016
collabor@@ 65010
drin@@ 64998
script 64975
unic@@ 64973
rams 64899
sie 64892
draw 64887
mitted 64876
stol 64875
Illinois 64824
spain 64809
Brian 64802
alo 64799
bronze 64796
papers 64779
vey 64779
joins 64769
programming 64755
Power 64748
derived 64739
acres 64736
particip@@ 64729
Hear@@ 64711
stores 64688
Senate 64667
Kir@@ 64650
foc@@ 64620
recep@@ 64608
centre 64542
Chief 64511
injured 64504
52 64501
phosp@@ 64484
dul@@ 64451
acid 64440
51 64413
Before 64372
temporary 64358
courses 64347
Mau@@ 64305
tera 64304
Part 64287
audio 64257
isms 64242
symbo@@ 64224
Director 64218
minute 64217
lear@@ 64216
controlled 64200
egy@@ 64195
images 64162
classification 64151
fications 64151
miss 64145
alling 64139
opposition 64139
ling@@ 64133
quarter@@ 64110
chell 64102
ier 64099
Area 64097
functions 64097
Open 64087
sha@@ 64082
occur 64056
grand@@ 64050
urday 64041
1944 64027
compared 64023
oring 63966
pieces 63961
1959 63951
Men@@ 63910
unincorporated 63904
yan@@ 63901
presi@@ 63891
refers 63891
1939 63861
tennis 63850
Jam@@ 63841
faculty 63837
Story 63825
plea@@ 63823
refused 63821
Human 63806
ety 63806
corps 63778
approach@@ 63777
quarter 63774
Lord 63771
Athle@@ 63762
fund 63750
walls 63750
Final 63728
registered 63725
Sun 63715
ual 63706
bie 63693
develop 63688
refu@@ 63667
Joe 63665
fire@@ 63659
dest 63658
mic 63647
mich@@ 63593
bands 63575
sale 63571
sus 63561
flying 63555
Jean 63550
cient 63547
reti@@ 63542
inn 63536
Independent 63533
Ash@@ 63531
latin 63515
israel 63503
brain 63471
slightly 63467
contro@@ 63465
encies 63465
Middle 63456
Bus@@ 63450
headed 63438
53 63434
homes 63432
Spr@@ 63397
looking 63389
motion 63368
trained 63365
ours 63361
ler@@ 63353
Free 63339
defen@@ 63325
finish 63315
nag@@ 63294
neuro@@ 63285
resident 63279
Jackson 63262
freedom 63257
joe 63248
broken 63240
seventies 63225
guardian 63208
grave 63197
locations 63192
officials 63188
composer 63180
express 63158
vo 63151
eous 63133
chri@@ 63125
graph@@ 63122
Pea@@ 63110
flow 63096
Indi@@ 63077
transfer 63069
kur@@ 63051
quite 63051
intelligence 63040
chem@@ 63028
school@@ 63016
stan 63013
multi 63002
aide 62998
acted 62995
distributed 62993
ologies 62990
locomo@@ 62969
reason 62957
Nic@@ 62941
andra 62931
http 62915
Modern 62903
documents 62903
legislative 62898
rying 62898
architect 62891
dating 62882
limi@@ 62860
flowers 62839
hen 62832
existence 62816
ounded 62806
iment 62801
thri@@ 62796
Up@@ 62774
watch 62756
Lam@@ 62740
organi@@ 62728
causes 62717
spective 62690
bound 62654
fon@@ 62634
Fur@@ 62631
rell 62603
situation 62558
conflict 62545
armed 62540
oral 62513
Major 62509
endemic 62494
ses@@ 62494
Black@@ 62452
one@@ 62446
Show 62434
titude 62430
sub 62428
Associ@@ 62426
blu@@ 62415
portion 62404
deci@@ 62403
Sel@@ 62400
ably 62394
men's 62393
nineties 62362
recru@@ 62354
file 62352
hosts 62350
metres 62350
Mov@@ 62346
scription 62342
screen@@ 62339
lah 62323
brief 62295
dur@@ 62283
bag@@ 62270
Statistical 62269
missions 62265
tox@@ 62247
psy@@ 62223
Poli@@ 62221
Van 62217
aysia 62217
Nom@@ 62202
Long 62199
Es@@ 62176
proved 62166
mix@@ 62161
Le 62160
49 62148
southeast 62103
46 62102
ues 62084
By@@ 62075
repea@@ 62072
fia 62068
restric@@ 62065
Rem@@ 62063
defeat 62047
scoring 62039
dimen@@ 62012
fox 61999
inci@@ 61982
permanent 61969
secre@@ 61967
boy@@ 61963
rus 61963
tice 61942
vor 61935
rebel@@ 61929
Dea@@ 61920
1946 61898
town@@ 61896
than@@ 61867
improv@@ 61845
insi@@ 61834
Early 61831
ancy 61815
Eastern 61781
1956 61764
pac@@ 61763
roof 61760
leveland 61753
Coast 61743
Naval 61729
Hung@@ 61682
laid 61670
after@@ 61657
passenger 61655
Election 61636
klin 61625
Donald 61582
1957 61558
1958 61556
teria 61533
advoc@@ 61504
presence 61487
mrs 61485
erto 61483
identity 61482
overs 61457
bot 61436
ception 61431
jackson 61430
po 61388
illustrated 61383
display 61372
nedy 61359
sell 61339
Inte@@ 61336
desig@@ 61327
gest 61324
fits 61319
lieutenant 61314
shape 61311
premiered 61291
Sc@@ 61282
ogen@@ 61271
calcu@@ 61267
IV 61263
communication 61256
budget 61254
necessary 61232
diction 61229
1948 61225
Sher@@ 61224
95 61219
scre@@ 61189
gence 61187
prepar@@ 61186
Bon@@ 61173
mall 61121
Empire 61119
contained 61110
ema 61105
Kin@@ 61063
arab@@ 61063
category 61047
Special 61026
AM@@ 61024
veter@@ 61019
978 61016
driver 60991
index 60974
hann@@ 60954
ques@@ 60953
scheduled 60933
preci@@ 60925
rent 60915
losing 60908
gay 60905
thin 60884
Gran@@ 60848
musi@@ 60819
Vir@@ 60810
Family 60798
Wrestling 60798
journalist 60797
piano 60756
tat@@ 60739
cooper@@ 60722
rein@@ 60722
separ@@ 60714
daughters 60680
RO@@ 60630
esh@@ 60618
ador 60592
lac@@ 60578
vehicle 60558
counties 60516
ingly 60513
miller 60500
vest@@ 60494
resulted 60481
attribu@@ 60472
ums 60465
gates 60456
dram@@ 60445
gui@@ 60434
boar@@ 60428
Bol@@ 60412
desi@@ 60401
exhibition 60388
forma@@ 60384
Andre@@ 60374
Tit@@ 60373
straight 60363
bodies 60348
dation 60331
archives 60319
atom@@ 60305
person@@ 60298
strian 60298
bic 60290
Governor 60276
CA 60262
Pro 60248
sav@@ 60238
weapons 60223
step 60216
standards 60168
powers 60147
wich 60125
some@@ 60124
target 60123
aim@@ 60122
Creek 60116
forming 60107
kit@@ 60075
supply 60073
yo 60071
bat 60050
provincial 60046
rema@@ 60030
popu@@ 60028
Latin 60016
lance 59990
facts 59972
parks 59962
ables 59956
Theatre 59944
chain 59943
needs 59939
contact 59932
induc@@ 59928
tai@@ 59916
le's 59891
excel 59873
returning 59873
eyes 59872
northeast 59853
sman 59845
susta@@ 59835
spread 59796
fashion 59795
Bang@@ 59792
Dist@@ 59781
mind 59776
escap@@ 59763
contest 59739
Miller 59730
accident 59723
Technology 59702
heat 59673
bay@@ 59653
guns 59635
ukra@@ 59628
therapy 59627
scenes 59625
Korea 59615
founding 59610
constituency 59594
selection 59591
ives 59575
ter's 59555
bring 59554
banks 59541
Spec@@ 59534
tured 59531
nick 59523
Rac@@ 59516
mountains 59490
divisions 59484
Military 59465
Tw@@ 59458
picture 59454
diagno@@ 59420
candidates 59414
DC 59413
discip@@ 59401
prises 59401
newly 59394
ographic 59373
Interview 59368
creation 59356
measu@@ 59328
lip@@ 59319
Fame 59304
containing 59298
life@@ 59271
ffi@@ 59270
meets 59249
differ@@ 59243
renov@@ 59241
Lewis 59235
distinc@@ 59229
presidential 59220
dh@@ 59200
eks 59198
nei@@ 59186
strateg@@ 59161
Philadelphia 59159
till 59152
opposed 59150
on's 59134
wer@@ 59132
rane 59128
54 59098
terson 59096
users 59079
Sco@@ 59066
tism 59058
Ukra@@ 59043
peop@@ 59037
sep@@ 59036
Machine 59024
regularly 59022
bibli@@ 59003
vi 59003
big@@ 58975
Oli@@ 58963
stitution 58957
terri@@ 58930
1955 58924
showed 58918
rett 58890
thouse 58879
Airport 58862
sley 58859
Agency 58856
influenced 58850
zy 58835
Pau@@ 58825
Municip@@ 58809
coc@@ 58797
presen@@ 58786
gang 58771
nest 58757
eng 58753
Van@@ 58729
excell@@ 58728
Hay@@ 58723
kentucky 58710
wave 58682
tely 58681
will@@ 58676
sense 58675
Ontario 58666
ré@@ 58661
bor 58653
56 58637
speech 58634
cinema 58628
formal 58619
Elizabeth 58598
tony 58598
son's 58571
eves 58555
eligi@@ 58552
Boo@@ 58534
alle@@ 58519
attempts 58519
simply 58515
lady 58477
tow@@ 58469
citiz@@ 58460
spot 58447
sixties 58433
cz@@ 58421
Bru@@ 58405
write 58405
emplo@@ 58392
lace 58383
boats 58377
k's 58341
Kri@@ 58339
jamin 58339
violence 58321
pressed 58314
wright 58314
fund@@ 58300
tering 58282
thic 58281
1942 58280
scra@@ 58274
physics 58240
hn@@ 58239
something 58239
couver 58233
Tan@@ 58225
alog 58225
painted 58224
kon 58219
1947 58216
aer@@ 58186
grey 58174
ontario 58173
poet 58162
Arthur 58160
zon 58130
heavily 58121
shaped 58108
hired 58068
lon@@ 58056
session 58055
junction 58036
dé@@ 58021
donesia 58013
iry 58010
churches 58000
break@@ 57991
powerful 57985
Sunday 57978
fru@@ 57969
Video 57951
1952 57938
deplo@@ 57928
catalog 57919
mingham 57917
atus 57911
cann@@ 57883
Page 57866
want 57861
pine 57851
examples 57842
fishing 57833
whether 57830
walk 57806
Direc@@ 57800
chair 57798
Century 57775
profit 57755
reasons 57748
subsi@@ 57730
focused 57727
chemistry 57723
Que@@ 57722
contain 57708
quest 57708
lewis 57703
earth@@ 57682
DVD 57680
missed 57666
authorities 57661
oose 57650
existing 57615
berta 57611
aled 57550
maintained 57549
coal 57548
kol@@ 57524
wick 57518
pod 57516
starring 57498
Guardian 57494
background 57465
IA 57446
spea@@ 57440
entures 57431
1941 57423
mam@@ 57417
research@@ 57415
korea 57393
ceremony 57391
wounded 57391
Micro@@ 57379
acqu@@ 57377
cian 57373
portionment 57370
representative 57361
Out@@ 57360
divi@@ 57348
feed 57343
engines 57342
instruc@@ 57340
1954 57337
alities 57318
domestic 57292
66 57261
strated 57247
jef@@ 57243
gy 57234
Sea 57215
grounds 57212
raeli 57204
Entertainment 57200
ium 57198
Google 57184
waii 57181
Under 57168
Ama@@ 57164
Hou@@ 57155
Environ@@ 57136
milli@@ 57114
installed 57111
Bob 57104
amar@@ 57086
bon 57062
sty@@ 57062
ign@@ 57051
N. 57041
inated 57039
hills 57037
58 57030
certi@@ 57019
Melbourne 56995
susp@@ 56966
graphic 56961
associ@@ 56960
coordin@@ 56959
ob 56941
portuguese 56928
improved 56908
MS 56892
resistance 56885
valu@@ 56885
Like 56874
Four 56864
chin@@ 56854
lington 56837
publishers 56831
1953 56823
pot 56821
skin 56809
deputy 56805
Earth 56779
72 56758
isla@@ 56750
Portuguese 56745
toward 56739
joining 56737
tative 56732
Davis 56729
rati@@ 56714
chapel 56697
killing 56657
1949 56651
rez 56651
ST@@ 56641
wag@@ 56637
plu@@ 56635
scri@@ 56621
Mem@@ 56616
determined 56614
Spe@@ 56612
rol 56606
respectively 56605
territorial 56588
day@@ 56582
Despite 56576
collected 56570
activ@@ 56568
arthur 56552
residence 56544
tons 56539
EN@@ 56534
rants 56515
Live 56512
uring 56499
onto 56485
meter 56460
google 56450
amu@@ 56448
Cir@@ 56446
electri@@ 56442
99 56431
negative 56423
suppor@@ 56413
eda 56398
Management 56394
Township 56389
shared 56388
contributed 56364
ophi@@ 56342
onomy 56337
edings 56321
ape 56288
scottish 56288
Limited 56287
Lor@@ 56284
thousands 56262
abilities 56248
Francis 56243
Pakistan 56227
lag 56225
kor@@ 56223
bai@@ 56214
tap@@ 56211
57 56203
cards 56200
trail 56188
consider@@ 56185
ege 56174
apol@@ 56173
ik 56173
fossi@@ 56171
bic@@ 56141
Scottish 56127
restored 56115
Psy@@ 56095
downtown 56058
Roo@@ 56053
Cross 56045
tated 56045
ready 56025
Hom@@ 56021
gent 56016
businesses 56009
tube 56008
convic@@ 56003
represent 56002
biggest 55998
condition 55987
sections 55975
sumed 55970
Lau@@ 55967
keley 55950
og 55948
heard 55946
cold 55937
singing 55934
enemy 55927
Asian 55918
nate 55916
republican 55898
voted 55880
88 55876
elev@@ 55876
entirely 55865
cky 55857
santa 55846
1385 55842
86 55834
rical 55819
francis 55815
innov@@ 55813
audience 55805
encoun@@ 55804
fuel 55776
Singles 55767
rif@@ 55764
herself 55759
citizens 55751
sper@@ 55745
ethnic 55741
Georgia 55717
Jef@@ 55706
Culture 55693
71 55687
inner 55671
rum@@ 55655
ius 55649
motor 55648
rever@@ 55628
recre@@ 55627
Movie 55624
63 55614
mill@@ 55612
bet 55601
Dre@@ 55600
substan@@ 55591
entrance 55587
Massachusetts 55575
Ol@@ 55554
shell 55549
Secretary 55522
dean 55516
78 55512
ring@@ 55500
zo 55496
tennessee 55472
maker 55462
damaged 55455
tech 55448
max 55435
kong 55434
investigation 55428
paintings 55426
Maryland 55414
rhy@@ 55414
alleg@@ 55413
Physi@@ 55410
ida 55401
Prince 55388
S.@@ 55382
entitled 55381
Manu@@ 55376
God 55374
1000 55357
melbourne 55353
Op@@ 55341
institution 55313
uro 55310
dent@@ 55309
questions 55307
techniques 55281
Histor@@ 55250
isation 55241
62 55234
Cham@@ 55231
Sab@@ 55218
Album 55214
loyd 55213
Federation 55205
61 55204
bob 55196
failure 55195
davis 55169
Musi@@ 55157
77 55156
enced 55134
shaw 55121
bis@@ 55119
bot@@ 55102
save 55093
Blu@@ 55090
gn@@ 55088
aviation 55086
colors 55072
eties 55068
bak@@ 55062
teachers 55061
cum@@ 55056
acre 55046
84 55042
producing 55040
mollu@@ 55017
Born 54957
letin 54952
onist 54951
solu@@ 54944
represents 54905
charges 54884
anion 54883
92 54869
movies 54864
tune 54861
cis@@ 54859
reality 54844
81 54838
docum@@ 54830
Fort 54815
bass 54812
Hollywood 54807
67 54801
filled 54797
76 54784
lose 54772
developing 54753
Morning 54746
93 54741
Route 54727
Archive 54712
maria 54712
Phil@@ 54701
59 54687
palace 54665
passengers 54663
eless 54662
Alan 54650
nationally 54649
turer 54647
Leg@@ 54641
Resi@@ 54636
Region 54625
magne@@ 54624
xed 54620
Ben 54614
unes 54612
athletic 54606
habi@@ 54573
expression 54556
solution 54551
monit@@ 54544
Publications 54537
composition 54533
ows 54530
telegraph 54512
iring 54503
affected 54480
gli@@ 54464
plus 54461
Broad@@ 54454
lications 54421
convention 54413
vis 54397
cable 54392
visual 54381
centuries 54372
neth 54371
nothing 54348
FI@@ 54334
Nar@@ 54334
doing 54331
Police 54324
infantry 54320
Administration 54317
judi@@ 54317
was@@ 54313
dman 54312
cates 54290
Tenn@@ 54277
guar@@ 54273
Only 54272
teen 54270
clim@@ 54249
PA 54237
m's 54184
musician 54174
Gaz@@ 54161
aft 54159
oklyn 54158
oster 54140
rivers 54140
elli 54138
inion 54136
mining 54131
IS 54103
surgery 54076
MA 54032
foun@@ 54023
zh@@ 54014
Hong 54009
Services 54000
employees 53986
internal 53971
skills 53960
91 53957
brick 53954
adam 53950
anniversary 53933
premier 53916
counc@@ 53914
83 53909
AL@@ 53908
ON 53907
iland 53903
parliamentary 53865
68 53853
incident 53852
medieval 53844
tti 53832
fam@@ 53816
honors 53813
representatives 53788
Maria 53787
roy 53784
.C 53781
cros@@ 53776
cited 53773
gau@@ 53765
ld@@ 53764
foot@@ 53760
institutions 53758
ules 53742
commission@@ 53720
Nat@@ 53719
korean 53716
effort 53702
fem@@ 53700
Super 53690
gone 53686
ib@@ 53677
ross 53675
brun@@ 53674
graphy 53671
1951 53670
foli@@ 53661
diocese 53660
gium 53654
pakistan 53636
Bec@@ 53628
ampshire 53622
dison 53612
acqui@@ 53610
question 53578
engaged 53570
ensis 53559
Rail@@ 53542
serious 53540
Brazil 53529
Natural 53526
Korean 53518
whit@@ 53515
exer@@ 53491
southwest 53491
Sla@@ 53489
easily 53488
hollywood 53485
pet 53478
announces 53460
fusion 53457
felt 53451
moon 53450
usalem 53445
ith 53442
tren@@ 53428
arch 53421
atures 53419
Gold 53404
ug@@ 53403
Several 53395
ances 53384
ister 53380
constitution 53371
uk 53362
tty 53346
es' 53339
Edition 53338
liberal 53335
Fox 53324
reporter 53317
inher@@ 53300
shooting 53294
tera@@ 53292
briefly 53277
dow 53274
AC 53270
onal 53257
debuted 53235
prob@@ 53235
cip@@ 53211
Age 53208
colorado 53196
ks@@ 53179
human@@ 53178
earliest 53170
try@@ 53169
engineer 53161
tannica 53150
Eric 53149
ests 53143
ocean 53140
resulting 53140
atlantic 53109
Industry 53107
Not 53082
height 53079
extension 53075
nis 53072
indic@@ 53064
M.@@ 53060
civi@@ 53041
studios 53031
Minnesota 53017
matter 53010
hero 53005
Allen 53003
charged 53003
restaurant 53003
rome 52994
modu@@ 52984
porter 52968
SA 52958
rone 52953
tence 52950
inary 52946
Pin@@ 52945
aming 52939
All@@ 52919
elder 52889
subsequent 52878
Justice 52867
strike 52866
Sciences 52859
Tony 52838
FL 52836
getting 52816
setting 52800
Space 52791
stic@@ 52786
1900 52771
zy@@ 52771
trip 52766
Nich@@ 52760
laun@@ 52755
moves 52723
ander@@ 52718
portra@@ 52713
amin@@ 52687
Sul@@ 52682
triple 52676
pass@@ 52670
Order 52654
orkshire 52641
Field 52626
Patrick 52617
alex@@ 52610
employment 52603
apo@@ 52602
Years 52593
1943 52564
tum@@ 52559
kill@@ 52545
evalu@@ 52541
gular 52534
uri 52523
Out 52507
74 52503
funds 52474
hec@@ 52449
Compu@@ 52446
Chan@@ 52436
receptor 52435
soundtrack 52430
compete 52420
fat@@ 52403
designs 52397
representing 52364
connection 52349
Mont@@ 52348
aga@@ 52348
thesis 52331
Flor@@ 52324
rear 52323
sgow 52320
rho@@ 52298
Local 52293
conte@@ 52286
FM 52282
orange 52276
rad 52269
89 52266
creating 52264
proteins 52255
bid 52248
attempted 52229
flat 52223
promotion 52219
participate 52203
strength 52195
grown 52194
Sem@@ 52177
routes 52168
manu@@ 52140
christi@@ 52139
crisis 52137
1936 52133
Ann@@ 52132
releases 52129
meth@@ 52105
tland 52098
centers 52090
mp 52087
nich@@ 52085
diplom@@ 52080
path 52078
mathematics 52076
caster 52070
87 52057
pay@@ 52049
princ@@ 52040
tell 52037
oo 52028
94 52016
blog 51993
signal 51989
had@@ 51975
op 51956
Comp@@ 51954
erous 51948
lon 51945
wine 51942
mix 51939
elementary 51896
MI@@ 51892
stab@@ 51875
Soci@@ 51868
genetic 51863
costs 51861
harmon@@ 51856
ladesh 51852
Conservation 51844
call@@ 51836
brazil 51822
Dan@@ 51819
rations 51810
athle@@ 51785
lett 51770
ball@@ 51762
Television 51759
ratings 51755
Kong 51751
ose 51739
DP 51737
98 51734
ennifer 51721
alled 51719
fired 51709
bone 51704
mili@@ 51656
stead 51643
holi@@ 51641
Cou@@ 51594
enix 51588
eigh@@ 51555
Democratic 51529
fighter 51508
Sun@@ 51493
ocracy 51482
DS 51473
ands 51468
bow 51433
reform 51433
sé 51426
D.@@ 51425
hou 51418
stance 51387
taining 51361
Cop@@ 51351
awa@@ 51341
diary 51319
U.@@ 51317
wis@@ 51317
gom@@ 51289
diversity 51288
nev@@ 51282
real@@ 51275
ship@@ 51268
loud 51241
clinical 51221
gastro@@ 51188
pup@@ 51187
tern 51187
extremely 51174
sees 51174
waters 51172
Chap@@ 51171
noc@@ 51169
partici@@ 51167
82 51161
ples 51145
tage 51143
Adam 51135
pen 51131
anny 51127
grow 51106
mea@@ 51101
Republican 51097
jen@@ 51095
jack@@ 51092
iley 51077
Avi@@ 51072
operate 51065
Nov@@ 51059
ath 51051
aman 51036
pression 51032
chas@@ 51013
crown 51006
borne 50998
suf@@ 50989
gins 50986
recognition 50986
suggested 50985
Wea@@ 50973
Chri@@ 50964
sought 50958
Now 50955
chose 50953
treated 50938
Season 50928
defence 50925
hil@@ 50917
corpor@@ 50881
96 50878
tests 50867
speaking 50859
vas@@ 50858
slow 50848
aug@@ 50840
stru@@ 50833
insec@@ 50829
69 50824
lists 50823
cho 50804
construc@@ 50802
Aus@@ 50798
jay 50781
buff@@ 50764
ON@@ 50756
tempor@@ 50753
cling 50752
orchestra 50742
carry 50735
zon@@ 50730
300 50727
kim 50725
73 50712
fax 50707
fic 50702
walter 50702
steri@@ 50674
missing 50661
closely 50660
pear@@ 50639
holding 50615
linked 50615
97 50609
kom@@ 50602
Walter 50591
manuscri@@ 50589
lu 50588
empha@@ 50581
shu@@ 50577
advance 50573
visible 50569
indu@@ 50564
com 50547
vent@@ 50545
collap@@ 50515
Christi@@ 50509
hard@@ 50508
lator 50505
kh 50500
degrees 50444
flows 50443
Chil@@ 50442
dency 50412
hammad 50403
pants 50394
attend 50385
owski 50383
zilian 50382
iowa 50375
ising 50375
Ak@@ 50369
emperor 50369
owners 50363
invent@@ 50356
Cin@@ 50352
Bou@@ 50314
indicate 50311
testing 50307
Medical 50303
objects 50303
passing 50295
filmed 50289
CH@@ 50288
Oregon 50285
Broadcasting 50271
hoo@@ 50263
Queensland 50257
davi@@ 50240
lasted 50240
Under@@ 50234
conservative 50221
pictures 50216
IUCN 50206
shad@@ 50192
gene@@ 50187
1918 50182
Bridge 50180
obile 50170
supporting 50170
esch@@ 50165
stayed 50151
tment 50150
Me 50146
Santa 50145
bap@@ 50139
maps 50131
tson 50117
tings 50115
pad@@ 50099
sequences 50085
span 50071
79 50063
frame 50059
iser 50045
turkish 50045
wing@@ 50045
Digital 50041
Schools 50040
admitted 50023
distinct 50016
oppon@@ 50014
nel 50012
persons 50007
investment 49998
Night 49983
etary 49966
stages 49964
activi@@ 49955
nik 49953
dows 49947
John@@ 49944
Memorial 49931
powered 49913
olo@@ 49907
infra@@ 49906
fram@@ 49896
Turkish 49886
hop 49883
hair 49879
ola@@ 49871
tall 49869
membership 49867
electoral 49863
ava 49861
Lyn@@ 49851
resses 49846
bby 49841
Indiana 49839
rong 49838
runner 49834
1938 49823
credits 49816
wants 49813
yon 49811
negoti@@ 49808
ardo 49800
ultimately 49798
metropolitan 49792
ES 49770
gle 49766
AA 49764
talks 49760
nickn@@ 49747
unable 49743
Fra@@ 49732
celebrated 49708
lim@@ 49694
Deb@@ 49690
ingen 49684
faith 49675
hl 49675
Atlantic 49668
flag 49663
underground 49659
criminal 49647
items 49646
sized 49640
stitu@@ 49640
progress 49631
Tai@@ 49626
ller 49619
colonial 49612
suicide 49610
ith@@ 49605
really 49591
terr@@ 49581
Between 49569
accoun@@ 49558
Islands 49551
factors 49546
Arti@@ 49531
fruit 49525
Hospital 49512
typical 49510
chel@@ 49507
AS 49506
debate 49503
songwriter 49496
christ@@ 49494
golf 49471
Kal@@ 49465
elson 49461
avenue 49453
alties 49452
kov 49436
EXCEL 49432
Loc@@ 49426
Ve@@ 49424
pose 49424
pha@@ 49421
home@@ 49409
ays 49407
stopped 49401
ean@@ 49391
Telegraph 49386
Anthony 49385
decades 49379
tham 49378
statement 49374
holm 49359
sculp@@ 49352
globe 49324
vali@@ 49306
nad@@ 49291
crash 49287
amateur 49282
Architec@@ 49265
gres@@ 49253
ideas 49237
separated 49236
invited 49214
ahead 49184
ridge 49177
PS 49135
amajor 49127
treas@@ 49122
Transportation 49113
conf@@ 49085
Affairs 49069
poin@@ 49068
etry 49060
Stone 49052
ento 49036
owell 49029
ived 49028
cock 49007
valry 49005
duty 49003
suspec@@ 48997
ty's 48997
americ@@ 48975
anderson 48973
terminal 48970
Dan 48963
sville 48951
description 48923
partnership 48918
fan@@ 48912
nings 48910
cat 48896
blan@@ 48895
lotte 48892
economics 48884
libr@@ 48867
baby 48861
accu@@ 48855
fen@@ 48852
andre@@ 48829
ride 48824
iden 48816
fortun@@ 48808
supports 48804
occup@@ 48794
suburb 48784
Nature 48776
mov@@ 48765
mark@@ 48762
polis 48761
stal@@ 48751
Wisconsin 48740
corner 48739
Ell@@ 48725
lem 48678
predic@@ 48652
figu@@ 48635
sit 48635
sheet 48629
cine 48624
eter 48624
Fol@@ 48606
Web@@ 48602
bank@@ 48602
nav@@ 48562
Ed 48560
seas 48553
Harvard 48543
baltimore 48537
hope 48523
glu@@ 48521
AM 48519
revised 48500
sanc@@ 48500
sri 48497
arena 48493
Water 48490
adjacent 48486
maximum 48483
inees 48478
viewed 48472
anthony 48459
regarded 48459
cabinet 48457
load 48457
Channel 48443
Tim@@ 48436
discovery 48436
ranking 48417
guin 48416
Greg@@ 48411
Christopher 48393
iver 48392
duke 48390
suffi@@ 48389
oline 48376
grou@@ 48370
lippine 48367
effec@@ 48364
stry 48349
handbook 48336
mode 48334
inches 48324
prevent 48318
hart 48312
LA 48308
Bishop 48300
sam 48298
Howard 48288
til 48286
touch@@ 48282
Place 48281
providing 48277
thodox 48276
Let@@ 48260
networks 48249
Forest 48242
mic@@ 48238
aren 48234
boun@@ 48234
wai@@ 48231
Will 48229
cel 48212
manchester 48199
medium 48194
categ@@ 48187
tables 48186
12@@ 48171
pot@@ 48168
yi@@ 48167
Pur@@ 48160
tribune 48150
universities 48135
floo@@ 48133
ressed 48127
anc@@ 48126
Kur@@ 48122
matt 48095
ature 48085
eights 48077
christopher 48057
ros@@ 48051
villa@@ 48044
Jor@@ 48040
extra 48030
MP 48027
eline 48023
opens 48014
etcetera 48005
childhood 48000
Euro@@ 47992
ion 47990
dream 47989
demand 47976
queensland 47972
sto 47969
alliance 47961
Song 47955
atian 47954
cos 47952
surve@@ 47949
Web 47934
alcoho@@ 47929
harvard 47929
technique 47928
caught 47920
Program 47899
sition 47887
Haw@@ 47883
seems 47883
believe 47874
address 47846
handed 47842
Professor 47820
hypo@@ 47816
anime 47808
Miss 47805
Manchester 47796
arizona 47794
Hot 47783
Av@@ 47774
erra 47763
increasing 47763
ists 47759
immy 47756
occa@@ 47741
classified 47740
owns 47729
Kevin 47725
updated 47719
specifically 47708
berry 47707
dford 47701
receiving 47697
iga 47693
won@@ 47690
amoth 47687
umb@@ 47684
centimeters 47665
sur 47652
rator 47642
FA 47614
plot 47612
Recor@@ 47607
Corps 47597
wen 47590
tawa 47538
Gor@@ 47533
ya@@ 47525
anity 47511
visitors 47503
abor@@ 47496
deut@@ 47487
cular 47480
arily 47477
jobs 47469
protec@@ 47453
wayback 47451
biographical 47423
seri@@ 47423
dop@@ 47417
accommo@@ 47411
soil 47410
onard 47405
metheus 47397
Week 47390
owa 47386
iva 47385
fers 47383
adults 47377
vege@@ 47360
lay@@ 47353
tably 47350
kevin 47342
speak 47342
atives 47334
magic 47332
electro@@ 47331
ported 47330
sin 47329
adapted 47327
severe 47326
volun@@ 47324
ential 47323
actors 47322
Hav@@ 47303
Wayback 47303
endor@@ 47295
drum@@ 47284
journey 47271
beautiful 47269
mart 47268
imperial 47263
novels 47261
beetle 47244
hang@@ 47221
Classi@@ 47219
ficial 47218
happy 47209
lows 47200
finan@@ 47182
tman 47182
estine 47177
Contro@@ 47164
anim@@ 47155
Sri 47152
maj@@ 47151
inea 47148
diego 47145
influ@@ 47139
ogy 47123
newspapers 47121
dep@@ 47113
uss 47098
Ef@@ 47081
lier 47077
ferson 47065
delivered 47060
Beach 47054
haz@@ 47044
importance 47029
1914 47021
simil@@ 47018
flower 46994
mess@@ 46994
produces 46976
legen@@ 46973
Rus@@ 46965
Langu@@ 46960
syl@@ 46960
chant 46958
Matt 46951
found@@ 46947
Tribune 46942
anthrop@@ 46920
vor@@ 46905
ulty 46903
occasionally 46893
ody 46891
howard 46886
Chem@@ 46885
1937 46882
ulation 46875
manufacturing 46874
ressional 46832
Down@@ 46830
Connec@@ 46809
bly 46805
protected 46800
Sport 46773
column 46772
min 46761
Organi@@ 46757
Clin@@ 46754
confi@@ 46752
staf@@ 46738
syste@@ 46726
Note 46722
enco@@ 46714
productions 46691
roots 46691
scores 46688
Anton@@ 46686
ghanistan 46685
Fal@@ 46676
Ryan 46675
althy 46675
planet 46674
tioning 46671
Py@@ 46664
reveals 46647
tribe 46641
bottom 46631
ambi@@ 46617
devices 46601
Mail 46593
kun@@ 46589
Rome 46584
credit 46581
UR@@ 46574
rat 46564
acion 46563
Anne 46558
teen@@ 46550
oming 46542
1919 46522
ei 46518
diffic@@ 46515
tisti@@ 46508
Cour@@ 46494
brigade 46490
courts 46483
bson 46479
Sin@@ 46474
Mountain 46472
SE@@ 46465
rea 46465
learned 46464
rement 46462
beta 46460
shir@@ 46460
annually 46446
Class 46432
editions 46431
markets 46425
Ass@@ 46403
amond 46398
dle 46398
satellite 46397
Your 46396
afterwards 46388
spirit 46368
cott 46356
Dur@@ 46351
're 46331
desh 46313
Trust 46312
Represen@@ 46310
R.@@ 46308
doub@@ 46308
storage 46308
etc 46307
witz 46304
lit 46301
stop@@ 46301
Kra@@ 46300
missouri 46297
Ira@@ 46294
hr@@ 46289
keeper 46283
priest 46281
hispanic 46279
Prize 46278
ogni@@ 46275
oklahoma 46274
personnel 46262
swimming 46253
hus@@ 46250
objec@@ 46247
doors 46235
1935 46234
pairs 46228
requires 46228
competitions 46225
fa 46222
insula 46217
torian 46213
thur@@ 46212
egas 46209
ezu@@ 46208
succ@@ 46199
Saf@@ 46195
determin@@ 46190
arrang@@ 46183
dged 46167
leans 46163
pec@@ 46156
vocals 46156
Then 46154
missi@@ 46149
expec@@ 46142
Rugby 46139
Jonathan 46133
pedia 46126
painter 46125
Metro@@ 46124
hou@@ 46124
summary 46120
ican 46118
ruled 46116
cust@@ 46112
lls 46105
thetic 46088
observed 46072
protect 46063
schedule 46038
supreme 46035
cultiv@@ 46009
wear 46008
expres@@ 46006
easy 45983
natur@@ 45980
tugal 45968
ogs 45960
Gordon 45957
Staff 45938
rolled 45931
vens 45928
lingu@@ 45925
strac@@ 45922
Baseball 45916
breaking 45913
Gun@@ 45911
estimates 45904
directory 45902
Publishers 45895
opposite 45892
buil@@ 45884
stors 45881
wars 45879
helps 45877
gho@@ 45868
Anderson 45859
values 45847
Do 45844
ente 45841
terior 45836
coastal 45833
device 45831
oning 45821
mund 45814
bush 45805
Wood@@ 45804
kness 45803
millan 45803
streets 45800
uma 45785
Rich@@ 45782
Nep@@ 45777
meta@@ 45773
honorary 45771
Harry 45756
ning@@ 45755
Hispanic 45754
retained 45753
appeal 45750
ude 45744
lipp@@ 45731
Fro@@ 45729
math 45728
Champi@@ 45697
Mount 45693
yment 45675
aded 45636
expressed 45634
jon 45630
tler 45629
licensed 45623
Figh@@ 45610
canal 45609
stro 45606
ption 45596
origins 45594
illustra@@ 45589
comics 45584
eded 45572
salt 45565
crea@@ 45563
good@@ 45560
C.@@ 45529
bassador 45526
ott 45520
require 45509
steps 45506
en's 45497
elor 45481
rial 45476
iger 45473
consecutive 45446
livan 45434
AP@@ 45433
stock@@ 45427
blin 45418
stown 45382
Jane 45373
shak@@ 45369
server 45360
understanding 45359
recipi@@ 45344
Golden 45340
hurricane 45339
chronicle 45330
moun@@ 45329
cus@@ 45328
roger 45306
cise 45303
rolling 45299
hyper@@ 45292
Master 45289
accused 45287
mills 45274
redi@@ 45255
legend 45241
gazetteer 45240
invasion 45238
rage 45238
think 45237
gardens 45226
reaction 45225
affiliated 45224
promote 45224
reaching 45220
task 45204
Clark 45199
spoken 45199
finishing 45196
tank 45193
Les@@ 45191
collections 45187
illips 45185
tab@@ 45184
detroit 45180
pron@@ 45180
printing 45171
tili@@ 45167
ando 45166
imum 45156
Colon@@ 45143
harry 45142
circuit 45141
attorney 45138
gordon 45137
describes 45133
ass 45117
vian 45113
acu@@ 45097
Fair@@ 45092
Play@@ 45091
ebook 45081
stran@@ 45079
recogni@@ 45070
scholar@@ 45062
fresh@@ 45060
capture 45058
hundreds 45052
thm 45051
regarding 45050
solar 45049
hu 45043
strategy 45029
differences 45023
vul@@ 45008
ough@@ 45002
Ian 44997
blin@@ 44993
Resources 44992
recordings 44992
steam 44976
treat 44967
tney 44962
Ever@@ 44954
pattern 44934
improve 44927
Our 44922
nak@@ 44910
pan 44901
experim@@ 44897
Poland 44889
pick 44888
gation 44883
Archives 44881
compo@@ 44878
anga 44875
deal@@ 44873
vented 44869
Death 44861
Christ@@ 44860
Tim 44853
para 44848
campaig@@ 44836
gio 44836
ogan 44835
tens 44830
pole 44828
Hockey 44824
Main 44823
processing 44818
temperature 44812
attached 44804
casts 44803
yes 44799
butter@@ 44796
aut@@ 44787
ghes 44780
gul@@ 44779
renew@@ 44769
directors 44767
So 44760
musicians 44752
llo 44730
lawyer 44723
Eng@@ 44717
unities 44705
fifties 44698
pursu@@ 44696
Last 44683
appe@@ 44683
appropri@@ 44658
Reser@@ 44636
AI@@ 44635
On@@ 44632
tourism 44630
auth@@ 44625
everything 44614
pal 44597
magaz@@ 44592
DNA 44587
offs 44586
leg 44579
carbon 44577
designer 44571
Vari@@ 44569
Sav@@ 44567
Port 44564
amoun@@ 44564
eliminated 44558
kel 44542
tened 44535
imal 44522
earl 44518
marketing 44517
fecture 44510
fav@@ 44479
guitarist 44473
alg@@ 44465
eting 44460
Village 44454
holy 44421
Sou@@ 44419
concep@@ 44415
illu@@ 44415
bec 44412
fab@@ 44399
earning 44385
poems 44384
eri 44377
comb@@ 44369
mons 44366
Ron@@ 44345
erec@@ 44344
olds 44344
EP 44343
zal@@ 44339
driving 44337
elli@@ 44337
swiss 44316
mini@@ 44290
eck 44286
distinguished 44271
equipped 44266
sm 44266
morph@@ 44261
swi@@ 44248
Sand@@ 44232
Philip 44231
declined 44217
decade 44205
combination 44200
Kan@@ 44199
aron 44189
vy 44181
replace 44176
Pun@@ 44166
Eth@@ 44165
teau 44162
tersburg 44160
recon@@ 44145
cap 44133
Dave 44131
Cong@@ 44113
formally 44110
integrated 44108
rinity 44102
guil@@ 44097
hara 44096
universal 44096
resolution 44094
experi@@ 44093
Introduc@@ 44081
measures 44075
tu 44075
gered 44057
state@@ 44054
outs 44023
eur 44014
stad@@ 44011
Cemetery 44008
i'@@ 44002
grades 44000
rejected 43997
Gazetteer 43981
Wy@@ 43978
mith@@ 43977
Russell 43969
Alex@@ 43959
sar 43950
antine 43931
Complete 43924
phen@@ 43918
coverage 43912
politan 43894
brook 43880
changing 43865
arranged 43864
nold 43860
ember 43858
OS 43849
1933 43840
eron 43833
scop@@ 43828
sole 43826
Roger 43810
explor@@ 43807
peaked 43804
demon@@ 43795
Ir@@ 43786
igeria 43785
surrounded 43784
emergency 43777
dave 43770
Ray@@ 43768
suff@@ 43765
sely 43760
Among 43757
mits 43755
wooden 43753
chess 43748
Netherlands 43746
yce 43744
purposes 43742
iden@@ 43741
Douglas 43740
drop 43740
gym@@ 43739
atmosp@@ 43731
civili@@ 43714
scen@@ 43713
Swiss 43706
colonel 43705
disc 43703
sung 43702
unlike 43696
feld 43686
boards 43684
dist 43684
inducted 43678
avoid 43661
semi@@ 43655
cally 43639
aspects 43636
ckland 43633
athletics 43622
theore@@ 43619
kelly 43585
Dol@@ 43582
Stru@@ 43579
V. 43567
rev 43558
LLC 43553
clark 43551
netherlands 43548
rest@@ 43543
chil@@ 43535
1912 43488
cathedral 43485
pharmac@@ 43484
rub@@ 43481
rebuilt 43475
relief 43468
angle 43461
integra@@ 43455
1929 43444
stery 43439
adop@@ 43435
prepared 43434
monthly 43425
amon@@ 43419
circum@@ 43410
mpi@@ 43409
rio 43402
sad@@ 43380
Kon@@ 43376
sky@@ 43375
ester@@ 43371
ijing 43364
max@@ 43364
Brea@@ 43356
poland 43353
carto@@ 43351
Fo@@ 43341
douglas 43341
molecular 43335
Mir@@ 43334
fixed 43331
signing 43328
premi@@ 43324
chamber 43317
NA 43313
interested 43312
well@@ 43312
bud@@ 43303
affili@@ 43294
rh@@ 43293
budd@@ 43289
exclusive 43282
venture 43277
rem@@ 43275
icks 43270
eries 43269
elevation 43264
1917 43254
latino 43243
demonstra@@ 43236
jonathan 43235
assumed 43227
saf@@ 43224
asks 43211
liner 43210
Brun@@ 43187
psychology 43181
accompanied 43166
Patri@@ 43161
Rap@@ 43152
cion 43132
engine@@ 43130
cow@@ 43112
municipalities 43104
oxy@@ 43098
Building 43097
Captain 43085
universi@@ 43081
gl@@ 43079
worn 43078
lat@@ 43076
philip 43074
Lady 43071
tary 43071
favorite 43067
grove 43061
Tak@@ 43054
Political 43042
PC 43040
gray 43034
vic 43034
xes 43032
grass 43030
turn@@ 43012
actual 43005
vary 42989
Naz@@ 42985
Ah@@ 42984
Arizona 42981
manual 42976
connecticut 42971
reve@@ 42944
idel@@ 42935
huge 42933
1910 42925
unt 42925
sbane 42919
tari@@ 42918
warri@@ 42916
IM@@ 42915
twin 42907
russell 42903
window 42897
bowl 42891
Cab@@ 42889
Fron@@ 42889
Missi@@ 42880
Latino 42875
albert 42869
AL 42863
saying 42858
Dy@@ 42850
Die 42848
object 42847
enton 42846
berger 42839
democra@@ 42834
fi 42834
nity 42830
battalion 42807
scar@@ 42802
latest 42800
tro 42791
hospit@@ 42789
rescue 42788
sterdam 42787
Sweden 42784
Gary 42781
station@@ 42777
experienced 42772
add 42767
Light 42764
Bruce 42750
kinson 42724
tools 42723
Fel@@ 42719
ega 42710
ix 42707
shares 42695
dorf 42688
surren@@ 42664
instruments 42660
.org 42659
chance 42658
giant 42655
ardi@@ 42651
ficiency 42649
class@@ 42633
purchase 42630
elim@@ 42628
mean 42628
vine 42627
select 42610
telli@@ 42609
processes 42600
binding 42594
ABC 42592
tress 42587
victims 42571
deep@@ 42565
truth 42564
liqu@@ 42561
amaz@@ 42558
itz@@ 42553
strial 42535
meant 42534
Inf@@ 42530
askat@@ 42507
videos 42507
1922 42501
abled 42500
fr@@ 42500
horses 42494
represen@@ 42480
Kansas 42478
Gener@@ 42469
book@@ 42457
ferred 42457
avo@@ 42453
landing 42444
rows 42442
corporate 42438
seattle 42428
kas@@ 42408
ato 42396
turkey 42380
achi@@ 42373
business@@ 42361
solved 42360
then@@ 42356
hund@@ 42342
goods 42338
Players 42337
Nations 42336
rative 42332
ros 42305
Engineering 42302
Alli@@ 42290
popularity 42288
Design 42279
artillery 42277
bruce 42273
team@@ 42267
deposi@@ 42263
1931 42258
Conserv@@ 42244
send 42244
dang@@ 42225
Bom@@ 42221
lap 42211
1934 42209
mel 42193
graduating 42169
luc@@ 42169
fordshire 42166
cio 42154
weekend 42152
compan@@ 42147
organic 42143
criticized 42141
Junior 42137
partners 42130
Avenue 42117
Lis@@ 42109
neu@@ 42108
equivalent 42086
sisters 42082
difference 42081
yd 42080
abb@@ 42069
gregation 42069
finance 42064
Wall 42063
ipzig 42063
endar 42060
broad 42054
Fire 42020
Econom@@ 42005
stress 42000
fici@@ 41995
volumes 41992
sensi@@ 41991
Acc@@ 41985
rine 41980
Threatened 41978
essor 41967
Rat@@ 41962
LE@@ 41960
anch@@ 41953
deliver@@ 41949
wind@@ 41949
conten@@ 41939
imprison@@ 41929
pseu@@ 41929
toured 41927
Ima@@ 41921
Kim 41902
kno@@ 41900
experimental 41894
houston 41894
belongs 41891
selec@@ 41887
ume 41885
martin@@ 41873
dialec@@ 41870
trying 41853
Don 41852
adverti@@ 41840
elsen 41830
mathema@@ 41829
reduce 41821
Ja@@ 41804
Quar@@ 41801
lawrence 41799
use@@ 41799
consci@@ 41793
demolished 41787
p's 41787
Castle 41781
safe 41773
Bos@@ 41770
soul 41770
interests 41766
Rock@@ 41758
ju 41744
Player 41719
flan@@ 41705
fini@@ 41701
lates 41692
links 41680
waukee 41680
econom@@ 41678
insurance 41674
Davi@@ 41672
apped 41668
logy 41663
alb@@ 41660
lam 41659
yu 41650
curr@@ 41640
ssic 41637
sentenced 41628
Lat@@ 41609
Announ@@ 41597
uk@@ 41596
temper@@ 41592
yal 41584
Study 41583
ening 41575
extrac@@ 41573
Bet@@ 41565
prising 41560
Sam 41557
Box 41556
pati@@ 41554
characteristics 41553
nai 41546
search@@ 41541
preserved 41531
modified 41530
Albert 41528
branches 41512
pig@@ 41511
Males 41509
AN 41504
depression 41504
1928 41499
industries 41498
Moore 41493
establishment 41480
cav@@ 41477
rid 41476
Winter 41461
anie 41460
committed 41436
berra 41430
alabama 41426
Jeff 41425
00@@ 41417
ownership 41417
arity 41414
't 41407
rity 41399
compilation 41389
nal 41383
incinnati 41381
1932 41378
Grea@@ 41355
olo 41346
toral 41345
rek 41343
Hamilton 41340
ade@@ 41340
rit 41337
CC 41336
och@@ 41332
expedition 41329
sworth 41314
jeff 41310
jun@@ 41310
illiam@@ 41295
Ari@@ 41289
looks 41278
enters 41272
Isla@@ 41271
uncle 41271
prisoners 41269
walker 41269
eo 41266
emed 41265
larvae 41256
Tel@@ 41254
fielder 41253
sation 41252
hole 41242
Kil@@ 41231
louisiana 41231
opportunity 41231
earing 41227
Jen@@ 41221
alysis 41208
adel@@ 41207
ures 41203
plain 41194
publisher 41194
personality 41191
controversy 41189
enture 41185
scheme 41168
Children 41150
fantasy 41148
inspec@@ 41139
crossing 41129
grows 41128
sica 41127
reign 41124
ayan 41114
Red@@ 41113
Rid@@ 41103
significantly 41087
ager 41084
Foreign 41078
Bell 41065
dition 41047
charity 41045
bee 41044
Moscow 41042
subur@@ 41037
khan 41033
teor@@ 41022
contested 40995
owe 40994
solid 40989
architectural 40985
components 40984
photography 40984
kaz@@ 40980
sday 40977
harbor 40975
Duke 40972
mounted 40971
Alex 40966
model@@ 40962
premiere 40962
enne 40958
modi@@ 40956
distribu@@ 40947
dynasty 40945
somewhat 40944
sweden 40942
tag 40941
Turkey 40940
acional 40917
flies 40911
sers 40906
Express 40905
Chronicle 40902
ographi@@ 40891
engal 40890
world's 40875
1911 40866
alogue 40864
adi 40862
subjects 40856
teries 40847
Academ@@ 40845
wic@@ 40843
Territorial 40839
tot@@ 40839
Philippines 40824
Bab@@ 40819
circle 40816
stones 40804
eon 40793
400 40790
kie 40786
camera 40785
1927 40778
hon 40777
alis 40776
sang 40775
volunte@@ 40772
Cen@@ 40765
ano@@ 40764
kills 40764
tained 40762
tea 40756
Techn@@ 40750
Var@@ 40715
authors 40714
rob@@ 40714
later@@ 40709
possibly 40709
Revolution 40690
Offic@@ 40688
sum 40683
injuries 40669
dogs 40659
Gram@@ 40652
virus 40652
Communications 40641
alex 40637
Norway 40636
acces@@ 40631
Tou@@ 40619
struck 40612
moscow 40604
terranean 40603
fies 40600
counter@@ 40589
ordinary 40572
volleyball 40566
absor@@ 40557
Budd@@ 40543
executed 40540
portrayed 40537
kent 40533
lif@@ 40530
miami 40529
hr 40526
backs 40524
massi@@ 40521
Matthew 40516
ior 40512
zen@@ 40509
Max 40503
NS@@ 40492
Regional 40480
perfect 40480
rounds 40468
mcc@@ 40461
bio 40456
Sarah 40454
Point 40453
twor@@ 40437
voiced 40436
administ@@ 40434
fifa 40427
plate 40424
Rights 40411
bear 40406
leagues 40398
strugg@@ 40394
philippines 40392
tre 40377
Transport 40375
bright 40367
portland 40356
sud@@ 40355
accounts 40354
Thor@@ 40353
receives 40350
deter@@ 40343
cast@@ 40340
esday 40340
defensive 40321
losses 40309
pain 40307
genes 40305
gly@@ 40304
happened 40285
Sau@@ 40282
custom@@ 40281
Five 40276
Reference 40268
Missouri 40265
cape 40243
austin 40229
abad 40226
atlas 40215
ther's 40211
wildlife 40211
hamilton 40208
wheel 40192
Cho@@ 40182
occupation 40173
Search 40168
Singapore 40133
menian 40133
1921 40132
friendly 40107
tivals 40107
buck@@ 40103
blues 40080
gur@@ 40057
aps 40055
concerts 40050
Harris 40047
creative 40046
holders 40043
oks 40024
Kat@@ 40019
Charts 40016
inging 40015
styles 40015
stria 40011
tine 40001
stitute 40000
formula 39992
boundary 39971
youngest 39966
tford 39965
relationships 39959
Dri@@ 39950
texts 39948
Bay@@ 39946
wedding 39936
Jour@@ 39933
nancy 39926
tack@@ 39925
descent 39924
pittsburgh 39918
zu 39912
Indu@@ 39906
cycli@@ 39879
anus 39878
drugs 39878
buy 39874
ulu 39856
contributions 39851
czech 39848
buses 39840
medals 39839
tron@@ 39833
moore 39831
ombia 39826
Tex@@ 39824
togra@@ 39810
ain@@ 39809
TER@@ 39804
talent 39801
shment 39799
aribbean 39787
lakes 39787
matthew 39783
frag@@ 39781
End 39780
ceased 39780
FIFA 39777
lling 39770
artistic 39765
advantage 39760
orph@@ 39759
5000 39755
cross@@ 39750
classi@@ 39734
Czech 39707
Ford 39706
biological 39706
Slo@@ 39702
Globe 39699
alizes 39693
laboratory 39687
roughly 39685
Institu@@ 39680
drafted 39679
definition 39677
Kelly 39666
medic@@ 39657
Jason 39643
jew@@ 39640
appointment 39638
confir@@ 39638
Songs 39626
landscape 39618
sarah 39617
sim@@ 39616
Plant 39609
allas 39604
unve@@ 39599
Batt@@ 39593
cov@@ 39589
Albums 39585
Back 39579
boss 39576
anning 39567
clay 39553
Anti@@ 39552
stim@@ 39543
equal 39535
document 39531
ampa 39523
hns 39520
nel@@ 39517
communist 39509
chew@@ 39505
alition 39503
thereafter 39501
agents 39496
duo 39491
nucle@@ 39487
learn 39483
turning 39479
Lawrence 39474
introduc@@ 39474
ould 39461
ival 39445
collaboration 39429
slow@@ 39429
Samuel 39421
monument 39421
partic@@ 39414
gosla@@ 39413
resol@@ 39406
amy 39401
DE@@ 39394
prehensive 39394
ired 39390
ocks 39383
onym@@ 39382
jason 39377
advan@@ 39374
chers 39371
1925 39369
1908 39347
Comman@@ 39342
Gul@@ 39336
astro@@ 39333
mck@@ 39323
wen@@ 39308
metro 39307
sui@@ 39307
ais 39298
gas@@ 39289
Thus 39284
evertheless 39280
inder 39279
Tour@@ 39278
volcan@@ 39276
Weekly 39266
bomb 39255
Handbook 39250
strom 39247
dinal 39234
Sym@@ 39225
iles 39220
ennial 39208
Walker 39201
mort@@ 39195
Pet@@ 39191
celona 39175
athletes 39167
trading 39156
este@@ 39155
commerci@@ 39154
inning 39151
requirements 39146
samuel 39143
advertis@@ 39137
1926 39132
replacement 39128
concrete 39103
oli 39095
regulation 39087
Head 39081
akh@@ 39079
ark 39079
Works 39072
Ot@@ 39069
Fam@@ 39067
Fle@@ 39066
Brow@@ 39064
1924 39063
harris 39063
praised 39057
neut@@ 39048
controversial 39040
photo 39035
Baltimore 39026
ink 39024
thre@@ 39019
ttoman 39017
ffin 39013
rington 39010
alla 39009
denied 39004
AP 38998
leaf 38995
mexican 38982
ptian 38981
contrast 38979
Kentucky 38969
extra@@ 38967
iny 38951
Kei@@ 38950
Good 38945
Ay@@ 38942
ovo 38926
ske 38926
Yo@@ 38917
norway 38916
Adel@@ 38906
duties 38900
dine 38899
Program@@ 38889
yale 38883
gi 38878
driven 38869
stel@@ 38861
quake 38856
Thompson 38845
girl@@ 38836
shan 38836
Ath@@ 38833
Sho@@ 38833
enger 38831
encyclopaedia 38828
Diego 38816
Mexican 38810
phony 38809
Kam@@ 38801
tied 38800
wrest@@ 38799
stances 38798
racial 38795
gold@@ 38783
gru@@ 38778
lled 38776
makeup 38768
Water@@ 38753
Stre@@ 38744
sequently 38738
snow 38727
quo@@ 38722
Former 38719
IN 38701
NE@@ 38699
wig 38689
guy 38676
Nick 38662
rew 38661
longest 38658
anne@@ 38650
masters 38647
narrow 38646
mé@@ 38642
pher@@ 38642
satis@@ 38636
danish 38629
offensive 38628
stra 38628
eck@@ 38623
shoo@@ 38619
pin 38618
practices 38611
Third 38610
syndrome 38596
singapore 38595
chlor@@ 38592
essential 38584
Detroit 38576
ricul@@ 38572
Evol@@ 38569
Real 38562
hill@@ 38556
teer 38550
authori@@ 38549
cousin 38548
existed 38545
stroke 38541
150 38540
illa@@ 38540
200@@ 38536
Rab@@ 38536
responsibility 38536
Site 38531
petro@@ 38530
nau@@ 38525
vement 38525
establish 38513
mou@@ 38498
uster 38494
itz 38489
charter 38479
parallel 38448
turing 38447
practic@@ 38443
athon 38438
1915 38435
Dru@@ 38435
ficient 38433
causing 38431
etta 38423
dependent 38415
Once 38411
ading 38408
invi@@ 38408
lux@@ 38401
operational 38395
Ray 38394
emen 38392
appar@@ 38390
Winners 38385
pers 38385
1916 38381
oga 38379
tah 38371
hat 38370
ito@@ 38367
sponsored 38355
Ann 38353
NFL 38336
Cultural 38333
banded 38332
attracted 38329
ebra@@ 38326
utah 38326
request 38322
jon@@ 38315
hibit 38307
cury 38306
frequency 38298
clea@@ 38296
film@@ 38294
frac@@ 38291
Chapter 38289
successor 38283
edu@@ 38282
Index 38278
phon@@ 38278
settlements 38255
mitte@@ 38252
AD 38243
Security 38240
decides 38227
patient 38225
mad 38224
mamm@@ 38208
inde@@ 38200
restoration 38196
Gallery 38193
synthesis 38193
attle 38192
eau 38176
borders 38167
norman 38165
blocks 38158
behavi@@ 38156
assin@@ 38147
makers 38147
photos 38147
raj@@ 38145
riding 38124
titu@@ 38123
feat 38117
license 38113
Danish 38111
chiat@@ 38111
UC@@ 38094
option 38094
phra@@ 38091
quanti@@ 38083
Housing 38082
Regi@@ 38082
alizing 38081
rapidly 38073
depending 38064
legislature 38062
stac@@ 38042
verte@@ 38014
Way@@ 38008
simul@@ 38002
ru 37998
Colorado 37997
io@@ 37991
haus@@ 37985
Gam@@ 37983
suspended 37979
certified 37967
ovic 37966
esc@@ 37965
Economic 37964
1923 37958
Executive 37956
obli@@ 37953
és 37953
Edinburgh 37946
i's 37932
guilty 37925
ander 37906
Cul@@ 37903
filed 37901
ency 37895
theatre 37895
commemor@@ 37888
sfield 37881
uro@@ 37879
suggests 37859
edo 37858
Supreme 37848
entering 37846
1913 37843
greatly 37842
frederick 37832
functional 37831
lip 37829
dual 37825
normally 37825
sit@@ 37821
emig@@ 37807
criticism 37805
Premier 37803
rons 37798
breaks 37797
tide 37789
ago@@ 37786
strongly 37771
navig@@ 37758
pg 37758
Frederick 37751
nam 37749
principles 37742
done@@ 37741
lind@@ 37741
sail@@ 37741
showing 37736
assistance 37718
colleges 37712
studying 37708
man's 37707
speaker 37707
Medal 37704
clone 37701
historian 37698
vessels 37689
Energy 37678
dum 37676
agan 37660
colony 37658
fung@@ 37658
neo 37656
miral 37653
scholars 37651
Publi@@ 37648
maintain 37644
CS@@ 37637
beg@@ 37631
protest 37631
pit 37628
hatt@@ 37609
fictional 37601
Base 37595
nu 37588
ruption 37565
c's 37558
limit 37552
mption 37549
anese 37546
mississippi 37539
otherwise 37517
jet 37516
Buil@@ 37513
hibit@@ 37509
Reviews 37499
treaty 37495
Dam@@ 37488
Deu@@ 37488
thompson 37487
pical 37482
Oklahoma 37480
covering 37480
funded 37478
panel 37475
cave 37470
enzyme 37456
measure 37455
every@@ 37425
ferences 37417
atically 37415
aissance 37414
edinburgh 37414
lims 37411
sors 37399
site@@ 37383
update 37376
alize 37374
issa 37370
everyone 37350
iving 37340
bul 37334
projec@@ 37311
yam@@ 37300
verlag 37296
reven@@ 37295
Encyclopaedia 37294
annon 37293
unusual 37291
Cl@@ 37287
inist 37282
symp@@ 37280
capit@@ 37269
gues 37264
sight 37264
ting@@ 37264
considerable 37262
associate 37258
shopping 37253
tiles 37249
morgan 37240
thal 37239
defini@@ 37237
igi@@ 37234
cist 37230
christmas 37215
Christmas 37212
ez@@ 37209
Ini@@ 37208
Band 37206
extreme 37198
tributary 37192
compla@@ 37181
coaching 37176
decline 37169
ail 37168
bear@@ 37162
apart 37153
threat 37153
cler@@ 37150
continental 37150
utes 37149
NAS@@ 37147
none 37138
keeping 37136
umbai 37124
Som@@ 37108
Murray 37106
dier 37102
vec@@ 37102
Illu@@ 37095
predomin@@ 37083
Spring 37081
trans 37078
stants 37067
beauty 37063
formers 37063
Bad@@ 37062
hunt 37052
Ross 37038
populations 37038
Dal@@ 37033
horn 37027
Sev@@ 37021
racks 37014
eggs 37010
Son@@ 36996
And@@ 36989
traveled 36988
scand@@ 36984
message 36981
bassy 36977
Vis@@ 36975
poem 36975
dell 36968
clif@@ 36957
geor@@ 36956
activated 36953
Egypt 36952
bund@@ 36950
onda 36945
legislation 36939
overy 36938
Scienti@@ 36934
extinct 36931
manufactured 36928
rocks 36927
hed@@ 36926
mass@@ 36924
universe 36902
Prime 36900
Rad@@ 36896
Temple 36895
enhan@@ 36893
kop@@ 36888
trophy 36878
col 36865
kha@@ 36858
compli@@ 36850
aca 36840
animated 36839
ax 36832
critic 36832
Tha@@ 36830
bron@@ 36820
lincoln 36820
expan@@ 36819
ebrew 36818
neigh@@ 36818
arrest 36814
pioneer 36814
eremy 36811
listing 36811
commonwealth 36809
rapid 36801
func@@ 36800
nandez 36790
helicop@@ 36783
AT 36777
arrival 36765
obitu@@ 36765
allowing 36735
Pon@@ 36733
kla@@ 36732
pow@@ 36732
ameter 36730
jane 36729
iti 36725
ceram@@ 36697
Down 36696
mack@@ 36695
tem 36695
tsch@@ 36694
ym 36694
quebec 36690
terial 36690
tter@@ 36688
Because 36678
birthday 36672
rin 36670
tram@@ 36659
vessel 36655
voting 36639
cash 36637
channels 36628
correspond@@ 36625
Rose 36624
springs 36614
Legislative 36602
hunting 36602
graduation 36598
fled 36595
river@@ 36592
erie 36586
raising 36586
tet 36586
Tokyo 36579
imm@@ 36574
Steven 36565
metho@@ 36561
Ful@@ 36559
revenue 36557
reputation 36550
cester 36543
Future 36542
dele@@ 36537
acci@@ 36535
ante@@ 36535
awar@@ 36530
aton 36526
Wit@@ 36521
helm 36513
hist 36501
Authority 36491
King@@ 36489
patterns 36485
urus 36483
guez 36480
kilometres 36480
graded 36477
movements 36476
children's 36469
element 36467
eo@@ 36466
VI@@ 36464
Switzerland 36463
fus@@ 36463
summit 36458
virtual 36457
ilers 36452
eness 36450
Nelson 36449
fighters 36449
hl@@ 36443
steven 36430
lite@@ 36412
tron 36410
Mea@@ 36405
murray 36402
Adams 36399
chari@@ 36393
bycidae 36392
notic@@ 36388
dering 36387
bre 36382
Barbara 36381
det 36380
Lincoln 36378
context 36373
shoot 36368
Eag@@ 36364
where@@ 36362
app 36350
tokyo 36335
conce@@ 36328
Here 36327
myth@@ 36312
Website 36309
tas 36309
Collection 36306
ische 36305
raid 36302
Stock@@ 36296
yar@@ 36294
diver@@ 36291
eae 36290
tening 36287
year@@ 36284
hori@@ 36283
ovi@@ 36280
23@@ 36277
platforms 36276
ranks 36273
frequent 36271
ciple 36270
barbara 36269
Through 36266
ladi@@ 36264
dens 36262
transmission 36256
inter 36240
fried@@ 36214
tumn 36206
guer@@ 36205
shol@@ 36201
NY 36190
collins 36181
exists 36179
Americans 36175
qi 36173
elds 36165
1905 36164
ffs 36158
divorced 36153
goal@@ 36145
detailed 36141
perhaps 36139
Whe@@ 36138
oa 36135
influential 36130
anapolis 36128
defending 36127
lined 36116
Grant 36115
Kent 36107
Be 36097
seek 36093
Bio@@ 36092
Upon 36091
characterized 36085
maintenance 36082
iff 36077
Identi@@ 36056
conserv@@ 36056
Systems 36054
Mill@@ 36045
facing 36045
ecu@@ 36043
Collins 36036
happ@@ 36034
voy 36034
finding 36033
Neu@@ 36028
Democra@@ 36024
weigh@@ 36018
transit 36015
skating 36011
tious 36010
Long@@ 36008
Emer@@ 36000
opport@@ 35999
sci@@ 35999
favor 35980
F.C 35957
Imp@@ 35952
Sound 35948
Free@@ 35941
innings 35936
teach@@ 35933
Cape 35922
americans 35920
tinum 35916
switzerland 35903
completion 35896
Norman 35895
Directory 35891
petition 35888
essing 35876
atlanta 35870
download 35868
wal 35867
sop@@ 35864
dol 35863
surviving 35859
linear 35856
garia 35852
woo@@ 35840
meanwhile 35839
sculpture 35839
AF@@ 35838
desert 35831
grandfather 35819
ii 35817
eville 35812
oulder 35804
thy@@ 35802
vals 35799
capable 35793
cers 35793
venue 35786
fill 35778
Hugh 35776
simu@@ 35766
jected 35760
atia 35748
juris@@ 35742
puni@@ 35736
assault 35733
don't 35731
You@@ 35730
ci 35724
cannot 35722
releg@@ 35716
Commonwealth 35707
drawing 35702
maine 35702
tunnel 35702
Princeton 35691
Syn@@ 35686
recovered 35681
derson 35673
scope 35673
peti@@ 35670
walking 35670
ference 35669
intel@@ 35665
boro 35654
Standard 35650
traded 35648
soldi@@ 35644
AD@@ 35640
Kol@@ 35639
ake 35624
line@@ 35622
Race 35619
ulum 35613
appearing 35608
ologists 35595
Robinson 35590
Esti@@ 35588
identification 35577
evil 35575
THE 35572
ision 35571
eb 35564
phenom@@ 35563
alive 35560
gel@@ 35560
HL 35538
fresh 35537
rev@@ 35533
perior 35519
gab@@ 35516
abroad 35511
reci@@ 35511
chy 35501
agas@@ 35500
accompli@@ 35489
famili@@ 35487
monastery 35486
aly 35481
sugar 35478
ordin@@ 35468
pope 35460
Collec@@ 35449
dee 35449
princeton 35428
remo@@ 35426
Chall@@ 35418
descend@@ 35417
antonio 35414
Campbell 35413
Contin@@ 35412
cool@@ 35408
allo@@ 35405
Politics 35399
bears 35395
sket@@ 35389
eval 35384
Shu@@ 35382
algori@@ 35382
ag 35380
gradually 35376
chment 35373
farmers 35373
housed 35362
raise 35362
widespread 35358
Mak@@ 35355
dus 35349
tested 35349
increases 35345
donated 35340
electrical 35338
teg@@ 35336
Rho@@ 35334
cric@@ 35328
smoo@@ 35326
reaches 35325
adams 35317
hugh 35315
keep@@ 35313
singh 35294
lek@@ 35292
thermore 35283
Austria 35278
tiz@@ 35274
expo@@ 35266
Wo@@ 35254
struggle 35252
deaths 35251
IG@@ 35247
dallas 35245
overview 35244
stric@@ 35232
Good@@ 35228
legs 35220
wayne 35214
habit@@ 35206
arrives 35199
fl@@ 35187
ino@@ 35184
filming 35183
indigenous 35181
tography 35181
bed@@ 35178
Sea@@ 35177
thes 35172
esh 35167
repla@@ 35166
portrait 35132
ato@@ 35127
apparently 35124
entrepren@@ 35112
occasions 35104
leston 35103
eder 35100
meetings 35095
increasingly 35092
Tol@@ 35083
rival 35081
Max@@ 35078
proposal 35078
Profes@@ 35075
az 35072
sand 35066
basin 35064
brings 35060
submarine 35043
Khan 35040
tourist 35037
Dublin 35034
Pil@@ 35033
rico 35033
It@@ 35032
jury 35032
customers 35026
assessment 35025
tamil 35022
Moun@@ 35009
rica 34853
defin@@ 34842
friend@@ 34816
amples 34782
inspi@@ 34758
get@@ 34745
binson 34682
Hum@@ 34521
iness 34302
colon@@ 34275
enty 34264
tsburgh 34214
commer@@ 34198
compon@@ 34194
wise 34172
photogra@@ 34132
shap@@ 34125
Rog@@ 34057
lars 34047
credi@@ 34045
rand 34042
adron 33956
midd@@ 33948
ady 33934
hap@@ 33872
quarters 33865
establi@@ 33848
memb@@ 33712
succe@@ 33707
Nav@@ 33685
ssippi 33537
uel 33524
eme 33500
tit@@ 33463
academ@@ 33447
unity 33446
Swe@@ 33417
stem 33413
Rou@@ 33351
osoph@@ 33303
contra@@ 33271
enge 33260
disea@@ 33252
sof@@ 33229
execu@@ 33190
ves@@ 33145
ested 33130
educ@@ 33106
Med@@ 33099
tually 33086
dlife 33026
pain@@ 32986
Ale@@ 32974
forman@@ 32929
ditional 32859
edy 32694
chur@@ 32657
weap@@ 32654
lew@@ 32604
there@@ 32594
mas 32466
fect 32429
Pr@@ 32423
architec@@ 32400
isiana 32331
atab@@ 32290
fiel@@ 32290
pione@@ 32274
istered 32204
enni@@ 32202
> 32157
thema@@ 32123
rs 31939
denti@@ 31899
tionally 31821
divor@@ 31670
sug@@ 31642
Tea@@ 31631
elop@@ 31617
Law@@ 31596
signific@@ 31595
oned 31530
illion 31492
vent 31423
chase 31416
Kel@@ 31353
restaur@@ 31320
invest@@ 31223
ley@@ 31194
week@@ 31138
terature 31085
dney 31065
penn@@ 31040
gram 31028
lik@@ 30974
twenti@@ 30909
eton 30784
org 30776
Auth@@ 30758
thly 30754
nic 30718
song@@ 30710
impro@@ 30693
tivi@@ 30679
descen@@ 30652
Terri@@ 30629
unicip@@ 30607
dios 30514
possi@@ 30511
appoin@@ 30483
Jus@@ 30427
eutenant 30421
rescu@@ 30354
eased 30323
Glo@@ 30264
occer 30199
immedi@@ 30195
jects 30194
gir@@ 30121
gradu@@ 30072
indepen@@ 29953
peror 29938
monum@@ 29892
ellow 29848
antry 29836
ticut 29816
orge 29806
shop@@ 29791
azz 29740
fore 29661
liter@@ 29644
stly 29547
LL@@ 29429
cath@@ 29426
electron@@ 29423
fili@@ 29352
orial 29262
Scho@@ 29179
Fore@@ 29133
contin@@ 29044
bai 29026
ketball 29008
perial 28942
thea@@ 28933
tatives 28920
poses 28919
ona@@ 28860
environ@@ 28857
Wom@@ 28816
enem@@ 28810
albu@@ 28739
Tem@@ 28721
Cath@@ 28676
cians 28647
iger@@ 28630
ceremon@@ 28598
strali@@ 28548
sonal 28503
Lit@@ 28476
olished 28430
fif@@ 28409
riage 28374
ij@@ 28347
therap@@ 28325
aller 28265
twork 28210
free@@ 28203
beth 28165
gency 28099
tournam@@ 27965
kee 27864
icles 27768
mpic 27742
_@@ 27733
communic@@ 27693
licen@@ 27685
rough 27653
sour@@ 27633
adem@@ 27629
lanta 27619
oot 27547
Il@@ 27535
lements 27504
Enter@@ 27484
Stand@@ 27450
Princ@@ 27422
alian 27383
ricane 27347
favor@@ 27340
tieth 27307
pha 27295
201@@ 27284
istan 27186
incorpor@@ 27161
cover@@ 27080
aul 27064
requi@@ 26975
philosoph@@ 26881
Hand@@ 26802
rop@@ 26728
itu@@ 26709
Manag@@ 26644
hysi@@ 26575
power@@ 26545
hind 26442
lap@@ 26402
Colum@@ 26330
Chron@@ 26320
way@@ 26313
fou@@ 26294
organiz@@ 26223
alu@@ 26201
gade 26127
him@@ 26118
ove 26074
poten@@ 25969
labor@@ 25852
bourne 25850
oot@@ 25831
surg@@ 25826
Clu@@ 25791
Thir@@ 25786
Dig@@ 25673
Comple@@ 25635
tech@@ 25545
prison@@ 25524
happen@@ 25319
follow@@ 25301
inet 25294
Mos@@ 25239
atta@@ 25175
milit@@ 25095
Dav@@ 25043
distin@@ 25042
apolis 24969
cyclo@@ 24943
spap@@ 24921
Wis@@ 24895
usual 24892
wed@@ 24848
vid 24833
archi@@ 24816
ood@@ 24766
eled 24706
Engine@@ 24705
mean@@ 24690
touri@@ 24677
igan 24657
lyn 24593
brou@@ 24569
diag@@ 24563
resp@@ 24562
Ox@@ 24516
wealth 24453
easi@@ 24417
lywood 24386
bloc@@ 24321
jap@@ 24281
attac@@ 24225
stin 24217
chair@@ 24216
tement 24194
Egy@@ 24166
situ@@ 24105
intere@@ 24055
stored 24041
TH@@ 23975
conflic@@ 23939
ems 23920
Premi@@ 23847
jour@@ 23775
iss@@ 23744
Sep@@ 23640
pak@@ 23638
ticism 23626
antas@@ 23514
Hous@@ 23494
inst 23413
eli 23233
religi@@ 23221
minal 23196
intelli@@ 23195
swim@@ 23030
uti@@ 23020
puty 22898
ult 22893
lish 22886
Civi@@ 22845
scape 22790
dying 22763
Mach@@ 22722
strong@@ 22674
Cent@@ 22661
duce 22641
onds 22625
entually 22579
perman@@ 22570
etro@@ 22524
rested 22441
aspec@@ 22433
rapi@@ 22418
ril 22305
ffic@@ 22299
ois 22299
hous@@ 22290
thedral 22213
tact 22089
dex 21974
promin@@ 21917
chestra 21891
ego 21880
six@@ 21880
wered 21879
cidae 21786
olic 21765
cere@@ 21715
isi@@ 21705
entu@@ 21659
ounding 21653
trea@@ 21587
telev@@ 21575
tware 21521
alion 21509
Fir@@ 21291
< 21128
Foot@@ 21063
Oly@@ 21018
rict 20997
gal 20992
alifor@@ 20930
chang@@ 20843
four@@ 20775
sionally 20717
_ 20711
yond 20699
advant@@ 20672
legisla@@ 20669
politici@@ 20662
issance 20649
aband@@ 20627
industri@@ 20581
omas 20571
ecular 20570
inclu@@ 20463
Ok@@ 20389
eared 20333
Pak@@ 20273
princip@@ 20121
Legisla@@ 20085
ually 20062
metro@@ 20028
PD@@ 20018
lins 19975
relea@@ 19970
debu@@ 19940
insul@@ 19905
stics 19897
employe@@ 19839
casting 19837
Foun@@ 19767
umes 19765
liamentary 19675
tish 19633
senten@@ 19590
seven@@ 19573
junc@@ 19571
evid@@ 19516
fres@@ 19513
istry 19475
Tech@@ 19468
rements 19449
tworks 19432
antasy 19428
mated 19407
Heal@@ 19313
guit@@ 19238
artic@@ 19206
adver@@ 19190
yland 19190
incol@@ 19188
deg@@ 19153
teenth 19138
graph 19117
wash@@ 19094
ford@@ 19055
estig@@ 19041
tau@@ 19039
oman 18987
expe@@ 18940
ghout 18926
ople 18921
dez 18896
ael 18859
ork@@ 18857
claim@@ 18840
distric@@ 18814
Develop@@ 18776
Secre@@ 18763
ocese 18753
schol@@ 18743
candi@@ 18724
burgh 18722
llery 18714
monas@@ 18704
Offi@@ 18697
wom@@ 18686
approx@@ 18670
individu@@ 18425
allow@@ 18350
ilton 18347
aven@@ 18338
Dic@@ 18291
youn@@ 18255
footb@@ 18232
ject 18201
honor@@ 18198
omp@@ 18168
purchas@@ 18155
birth@@ 18153
phar@@ 18141
dipl@@ 18103
iced 18067
dership 18059
ason 18031
Americ@@ 17999
ept 17975
havi@@ 17910
ribu@@ 17908
kilome@@ 17851
ergy 17819
rom 17787
combin@@ 17784
Grou@@ 17657
feat@@ 17647
scul@@ 17598
ival@@ 17597
surance 17587
Town@@ 17480
incre@@ 17469
beau@@ 17455
commis@@ 17373
ive 17365
Administ@@ 17326
rism 17317
ondary 17297
Communic@@ 17274
Emp@@ 17268
ext@@ 17237
statis@@ 17233
tino 17201
Feder@@ 17171
requ@@ 17147
keting 17139
coura@@ 17130
sugg@@ 17124
enth 17101
offen@@ 17089
quick@@ 17089
ought 17026
seum 17012
Cast@@ 17011
univer@@ 16803
vely 16802
proper@@ 16753
attemp@@ 16750
heav@@ 16632
vide@@ 16599
aila@@ 16564
techni@@ 16521
stems 16510
drome 16451
ied 16430
twel@@ 16426
torney 16370
ld 16340
success@@ 16322
arran@@ 16277
Eas@@ 16188
Cz@@ 15953
sound@@ 15916
frequ@@ 15890
Tele@@ 15834
Camp@@ 15824
deo 15802
rics 15796
Sci@@ 15782
tled 15736
icide 15687
availa@@ 15654
rance 15581
centi@@ 15484
vince 15448
extre@@ 15423
recor@@ 15402
` 15278
toria 15254
ampi@@ 15250
fth 15240
Maj@@ 15235
Corpor@@ 15220
lowing 15220
tionary 15172
house@@ 15145
repu@@ 14986
zine 14927
child@@ 14848
incor@@ 14839
m2 14783
responsi@@ 14758
dividu@@ 14730
regar@@ 14695
plat@@ 14689
ility 14684
reds 14653
tann@@ 14643
ilitary 14622
gative 14600
pment 14545
inva@@ 14541
surr@@ 14537
shion 14513
eved 14456
shers 14450
russi@@ 14372
seu@@ 14294
reau 14281
dicated 14243
thous@@ 14240
guished 14179
offici@@ 14127
forts 14101
equi@@ 14071
necess@@ 13971
ount 13943
schedu@@ 13886
bean 13872
Penn@@ 13826
Villa@@ 13747
mpics 13720
usu@@ 13680
cept 13620
Archi@@ 13617
norm@@ 13595
Revi@@ 13566
iversary 13531
ocra@@ 13435
olution 13432
giv@@ 13410
treat@@ 13410
offi@@ 13362
aniel 13316
Moder@@ 13301
other@@ 13301
EX@@ 13276
oppo@@ 13258
materi@@ 13252
micha@@ 13139
liam@@ 12901
design@@ 12896
dential 12867
evin 12825
wth 12806
mosp@@ 12688
respond@@ 12631
terns 12576
ockey 12573
Youn@@ 12508
rish 12441
decla@@ 12364
Anth@@ 12305
member@@ 12277
inct 12233
overn@@ 12233
issu@@ 12099
posal 12085
essment 11970
oran@@ 11901
Week@@ 11869
orig@@ 11838
prehen@@ 11790
cow 11683
lor 11657
domes@@ 11609
applic@@ 11601
hosp@@ 11547
fig@@ 11514
overed 11508
Public@@ 11499
oward 11494
popular@@ 11461
urity 11389
occu@@ 11379
ause 11297
satelli@@ 11272
rough@@ 11190
ongs 11189
common@@ 11149
kish 11120
ispan@@ 11081
beet@@ 11045
aylor 11030
milar 10995
fered 10953
ength 10930
Lew@@ 10881
leges 10846
bass@@ 10836
deliv@@ 10753
nership 10728
prog@@ 10728
coast@@ 10574
accomp@@ 10483
cous@@ 10463
elem@@ 10457
lems 10449
isting 10381
bara 10333
ffic 10323
fail@@ 10301
cident 10271
world@@ 10215
commo@@ 10197
efly 10036
como@@ 10025
zig 9982
thur 9953
utiful 9916
communi@@ 9904
critici@@ 9898
rench 9848
icro@@ 9765
restor@@ 9731
ources 9664
Dut@@ 9570
minist@@ 9516
DV@@ 9491
rence 9487
exis@@ 9473
Fes@@ 9362
icle 9297
tegy 9238
~ 9197
champion@@ 9184
arist 9132
alab@@ 9066
repres@@ 8936
ince 8875
Govern@@ 8846
cil 8820
mith 8799
larly 8707
BN 8637
/@@ 8521
wau@@ 8447
derick 8416
sary 8402
timately 8380
imately 8346
crete 8313
resul@@ 8276
Maga@@ 8243
staur@@ 8237
amaj@@ 8125
icop@@ 8115
stian 8102
chann@@ 8040
genous 8026
sylvania 7969
eles 7963
cis 7860
Limi@@ 7842
Hosp@@ 7762
sugge@@ 7731
sored 7617
iversity 7566
pically 7551
dynas@@ 7547
ocratic 7329
alco@@ 7276
previ@@ 7251
controversi@@ 7160
erica 7106
olina 7077
capac@@ 7072
vard 7054
dial@@ 7053
partment 7014
ilian 6965
rican 6949
fically 6946
municip@@ 6867
gely 6859
leyball 6828
atre 6765
equival@@ 6662
lightly 6622
veh@@ 6612
selves 6605
uscri@@ 6560
ehold 6550
tenant 6522
dox 6514
tainment 6415
eces 6392
thew 6347
charac@@ 6314
signi@@ 6268
Swit@@ 6186
uries 6128
eated 6122
Wash@@ 6038
reland 5995
nine@@ 5974
bane 5971
near@@ 5930
throu@@ 5897
edia 5714
langu@@ 5634
mob@@ 5619
compi@@ 5537
osen 5531
import@@ 5504
alth 5456
fairs 5442
Albu@@ 5406
urch 5374
kyo 5368
haps 5294
kilomet@@ 5279
wro@@ 5259
amate@@ 5226
pared 5194
cyclopaedia 5178
make@@ 5177
ppi 5169
espec@@ 5097
phia 5096
provin@@ 5090
ebru@@ 5018
tugu@@ 4996
goti@@ 4989
omet@@ 4942
inju@@ 4940
199@@ 4925
paedia 4896
episo@@ 4811
ilities 4798
tims 4796
primar@@ 4722
Oreg@@ 4714
Jap@@ 4674
oundary 4660
portion@@ 4628
grea@@ 4581
terran@@ 4561
grees 4477
Common@@ 4456
etings 4424
adian 4413
emor@@ 4374
enzy@@ 4353
habitants 4199
thed@@ 4108
essels 4100
russ@@ 4074
Span@@ 4017
daugh@@ 3997
inese 3980
tima@@ 3914
zona 3891
pied 3865
great@@ 3842
zil 3832
198@@ 3812
occur@@ 3725
gust 3724
Ano@@ 3718
signifi@@ 3710
quired 3694
Execu@@ 3673
allel 3638
own@@ 3638
Champion@@ 3602
erly 3598
195@@ 3591
Telev@@ 3564
phen 3540
gow 3524
Servic@@ 3438
htt@@ 3408
lege 3358
islation 3337
tems 3323
incin@@ 3250
ladel@@ 3203
antoni@@ 3181
illiam 3076
cyclopedia 3074
193@@ 3059
197@@ 2988
seventi@@ 2977
orean 2939
tario 2895
vania 2878
ularly 2854
cisco 2829
Ital@@ 2822
ially 2813
ondon 2807
196@@ 2797
figh@@ 2795
pread 2768
194@@ 2763
ongside 2728
edin@@ 2717
fessor 2673
illin@@ 2669
arib@@ 2657
agricul@@ 2639
featu@@ 2636
gby 2624
xt 2532
vae 2513
newspap@@ 2510
retur@@ 2507
orea 2495
Org@@ 2470
eball 2422
ults 2362
pean 2346
lahom@@ 2321
consecu@@ 2288
orado 2276
ww@@ 2226
wides@@ 2175
@ 2167
conom@@ 2120
alem 2083
Swis@@ 2055
ylor 2044
ren's 2037
jacent 1988
demic 1944
tival 1923
theus 1882
busin@@ 1809
chall@@ 1795
glas 1794
uly 1723
=@@ 1675
thern 1641
tober 1613
mely 1596
detro@@ 1576
Illin@@ 1537
dren 1529
Apri@@ 1464
tennes@@ 1459
elop 1423
ghani@@ 1407
accompani@@ 1371
toge@@ 1308
nati 1304
timore 1304
orgia 1296
hio 1241
Statis@@ 1195
dely 1185
rael 1156
lantic 1144
stopher 1093
relation@@ 1080
souri 1078
estab@@ 1061
unday 1052
Edin@@ 917
~@@ 894
anish 875
campa@@ 851
apore 810
sachu@@ 801
ardian 778
lahoma 754
pite 686
publican 670
ampion@@ 650
:@@ 631
mosco@@ 599
cetera 575
cantly 567
tenance 564
exico 559
^ 531
performan@@ 521
controver@@ 519
appear@@ 473
ducation 450
acific 434
-@@ 426
w.@@ 423
allery 414
setts 405
zabeth 403
tween 394
estern 388
passeng@@ 376
oogle 343
earch 331
CEL 330
`@@ 315
seph 309
subsequ@@ 305
Detro@@ 300
ginia 296
ansas 294
brary 284
ompson 272
| 267
stralian 242
stralia 236
atabase 226
ovember 223
bune 215
= 207
|@@ 204
repren@@ 202
unior 201
tember 198
alifornia 196
ewish 191
attem@@ 186
ackson 183
illiams 182
troduc@@ 176
IUC@@ 170
embly 162
therlands 161
viron@@ 151
,@@ 150
ttish 146
erican 142
champi@@ 129
itage 118
lorida 110
earli@@ 107
ensland 105
cording 100
nesota 91
[ 88
becom@@ 85
wegian 84
ealand 79
hnson 78
onathan 76
preme 76
icago 74
zerland 72
oviet 67
ladelphia 65
ournal 58
] 50
increas@@ 50
mittee 48
consin 44
{ 40
} 40
incoln 36
restling 36
+ 32
ecember 30
trieved 30
exican 28
etteer 27
owever 23
sportation 23
* 22
illboard 22
liament 22
emetery 20
+@@ 14
entucky 14
everth@@ 14
sachusetts 13
tuguese 13
anuary 12
ebruary 10
lippines 10
§ 7
( 6
^@@ 6
reatened 5
) 3
ispanic 3
° 3
\ 2
ī@@ 2
 1
§@@ 1
madeupword0000 0
madeupword0001 0
madeupword0002 0
madeupword0003 0
madeupword0004 0
